#version: 0.2
t h
i n
a r
e r
a n
e n
i l
a l
th e</w>
t i
i n</w>
o n
o r
d e
l a
a p
r e
o s
e r</w>
a n</w>
m e
m a
ı n
o u
b i
v e</w>
t e
o l
t o</w>
d i
e l
o f</w>
a t</w>
in g</w>
o n</w>
ap os
& apos
an d</w>
u n
i s
i s</w>
&apos ;
d a</w>
i t
l e
a s
o r</w>
a k
u r
l ar
d e</w>
e n</w>
e s
ı n</w>
a t
a y
bi r</w>
l e</w>
e d</w>
l i
a c
r o
q u
o t
s t
e s</w>
e t
a m
e c
a b
l er
r i
a l</w>
th at</w>
h a
e k
u s
a d
o m
s i
qu ot
quot ;</w>
& quot;</w>
ü n
u l
w h
a ş
o v
c e</w>
i y
i m
s a
i r
a s</w>
y o
n e
d u
T h
r a
s e
l y</w>
i t</w>
ı r
th e
la r</w>
a r</w>
o p
ti on</w>
er e</w>
n o
a k</w>
g ö
v er
yo u</w>
i ş
d i</w>
i ç
d a
i c
de n</w>
b il
i r</w>
d ı
y a</w>
in e</w>
i z
u m
ı l
en t</w>
u n</w>
k i</w>
f or</w>
in i</w>
b u</w>
&apos; s</w>
d an</w>
m e</w>
e v
ı y
a z
ın da</w>
i m</w>
p ro
d o
u t
l an
l a</w>
ü z
s h
w e</w>
b e
c h
ın ı</w>
l o
g e
A n
it h</w>
b e</w>
t s</w>
g h
ar e</w>
te d</w>
t er
g i
iç in</w>
o la
l er</w>
y ap
th is</w>
s u
lar ı</w>
w ith</w>
ı k
a ğ
i z</w>
c on
e y
o k</w>
u s</w>
l d</w>
ou r</w>
ü r
u t</w>
ha ve</w>
t r
ı ş
w as</w>
f or
e k</w>
Th e</w>
e h
ou t</w>
ö y
ı m
u y
re s
b aş
ou n
d er
& #
bi r
a g
&# 9
ü y
al l</w>
k ar
e m
p ar
il l</w>
in de</w>
e t</w>
c i
c om
ı k</w>
ö n
i k
g el
ti on
ı ğ
d ı</w>
ı z</w>
ma s
g er
a v
no t</w>
t e</w>
h e
d ü
ın a</w>
l i</w>
o d</w>
B u</w>
th er</w>
di ğ
e x
t a
li k
on e</w>
un u</w>
r u
ler i</w>
t er</w>
du ğ
ou ld</w>
e y</w>
gö r
s p
in in</w>
w or
s on
An d</w>
eh ov
m an
ı z
m a</w>
h e</w>
ar ak</w>
e ğ
a h
er s</w>
s an
e l</w>
gh t</w>
or u
ro m</w>
e d
ı m</w>
ma k</w>
the y</w>
s o</w>
b y</w>
w ill</w>
n ın</w>
de ğ
a tion</w>
ı s
ak i</w>
g o
v i
f rom</w>
- -</w>
ü l
il er
ç ok</w>
g ü
k ad
it y</w>
c an</w>
h is</w>
ın ın</w>
s e</w>
a f
y e
i d</w>
d en
k on
me k</w>
o w</w>
p e
al ly</w>
al ar
p er
in g
s i</w>
y e</w>
ol duğ
u ş
s t</w>
da h
t o
t ar
a ç
a y</w>
W h
ma k
t u
t ur
b o
a h</w>
ö z
lar ın</w>
t ü
o k
d s</w>
y ar
t h</w>
k en
t i</w>
h er</w>
c h</w>
h i
f f
l en
dah a</w>
l u
d u</w>
l ı</w>
ab il
s a</w>
te n</w>
il e</w>
s ay
la ş
me s</w>
ol arak</w>
ı r</w>
o c
tion s</w>
n e</w>
ö l
u l</w>
wh at</w>
y an
. .
s o
de r</w>
t a</w>
us t</w>
d o</w>
ü k</w>
m i
ın dan</w>
ü k
re c
dı ğ
i l</w>
ı l</w>
i ti
at e</w>
d aki</w>
a m</w>
0 0
om e</w>
us e</w>
t ak
y aş
S o</w>
the ir</w>
in c
g e</w>
b i</w>
T an
no w</w>
t an
m ent</w>
ha s</w>
ab out</w>
m en
g en
n i
r is
m y</w>
u z
t ı</w>
3 ;</w>
&#9 3;</w>
1 ;</w>
&#9 1;</w>
r e</w>
.. .</w>
f i
o w
d ur
dü ş
di y
Tan r
m in
g r
k e
b el
G od</w>
s el
u p</w>
c a</w>
r en
k al
op le</w>
wh o</w>
m or
b ul
&apos; t</w>
p or
la y
z am
ma y
ola n</w>
di r</w>
sa id</w>
y our</w>
ı ş</w>
w ere</w>
il er</w>
s öy
b ec
d ing</w>
da y</w>
b ut</w>
ç ek
a ti
y er
g u
the m</w>
os e</w>
de ki</w>
g ün
s or
h al
pe ople</w>
s er
ou r
s in
es s</w>
m u
k an
gi bi</w>
me n</w>
ıy or</w>
t an</w>
o ther</w>
ti r
i k</w>
a d</w>
ö r
th ere</w>
am e</w>
c ak</w>
b le</w>
e ş
f a
t al
I t</w>
en i</w>
b u
th ing</w>
J ehov
Jehov ah</w>
r an
ic h</w>
ha d</w>
Tanr ı</w>
r a</w>
Y ehov
Yehov a</w>
w e
ing s</w>
öy le</w>
ar k
i f</w>
t ing</w>
do ğ
k ur
mas ı</w>
iy or</w>
o ğ
b ak
es e</w>
wh ich</w>
is te
h ar
ge ç
ü m
A l
b un
s te
w ould</w>
g h</w>
b üy
m i</w>
t ri
ö ne
v ar
p la
m il
e p
de v
in san
ç ık
de d</w>
f e
y üz
lar a</w>
t en
k ul
kar ş
ç al
V e</w>
u k
j ust</w>
m al
wh en</w>
mor e</w>
s en
un da</w>
an s</w>
as ı</w>
w ay</w>
ma ya</w>
oru m</w>
an t</w>
ğ i</w>
y ıl
c oun
i c</w>
el er
g il
ver y</w>
h im</w>
a use</w>
b er</w>
st er
p re
ığ ı</w>
k iş
kad ar</w>
p os
W e</w>
ec eğ
lik e</w>
ti c
h ak
an a</w>
ı la
ar t
C h
di s
p ol
t op
ger ek
iy i</w>
te s</w>
düş ün
a da</w>
ö ğ
en ce</w>
o u</w>
i h
o y
lar ını</w>
ler in</w>
ay a</w>
s on</w>
v ar</w>
ti me</w>
me y
k il
as ıl</w>
söy le
y ak
B i
se v
g i</w>
ur e</w>
ş ek
u z</w>
olduğ unu</w>
ov er
ti y
ş ey
es t</w>
gö ster
f ir
kul lan
i p</w>
k a</w>
ab le</w>
l ık</w>
ıy la</w>
in den</w>
k ay
it s</w>
&apos; n
ar s</w>
ag e</w>
f in
b en
am p
ou s</w>
on g</w>
çal ış
p res
dı r</w>
is e</w>
B ut</w>
me m
g re
I n</w>
ol d</w>
t w
i ri
be en</w>
A r
k en</w>
1 9
ü n</w>
le d</w>
f e</w>
me s
m an</w>
&apos; re</w>
K os
el l</w>
Wh at</w>
l u</w>
al so</w>
b as
th ese</w>
ü re
ou gh</w>
st an
ov er</w>
ap p
c o
2 00
p h
os t</w>
i a</w>
m o
de c
son ra</w>
li k</w>
sa ğ
le ş
a ma
as t</w>
ler ini</w>
com p
t y</w>
oun d</w>
e f
go ing</w>
an la
as ında</w>
İ sa</w>
si z
m er
bil ir</w>
bi z
ü ş
k at
is i</w>
u m</w>
me si</w>
büy ük</w>
k now</w>
n asıl</w>
s ome</w>
m on
ş ey</w>
oru z</w>
in ter
h ay
ge t</w>
v en
v es</w>
1 0</w>
p r
m is
Y ou</w>
ed il
bul un
h an
k ing</w>
b et
th en</w>
dı m</w>
a de
am a</w>
Kos ov
d ır
k ü</w>
ac ağ
n a
in to</w>
du y
üz er
ec ek</w>
i ki</w>
tr y</w>
w n</w>
h ow</w>
me ye</w>
E ur
y ol
&apos ;</w>
h el
il gil
diğ i</w>
di r
ar y</w>
b er
h ere</w>
i p
f ac
ac ak</w>
bec ause</w>
b ur
s al</w>
u r</w>
di k
mi ş</w>
b ağ
p ri
t ra
g ra
zam an</w>
Th is</w>
B ir</w>
c ı</w>
me k
c ould</w>
se e</w>
un un</w>
tar af
b öl
y on
k s</w>
u c
d ün
th an</w>
w i
t or
it e</w>
v e
H e</w>
ri ght</w>
g ar
th in
K it
n o</w>
ti ğ
an s
s un
iz i</w>
ti r</w>
le s</w>
S er
le t</w>
ün kü</w>
re n</w>
d ay
tw o</w>
e i
ger çek
yap t
şek il
te m
y az
Eur op
ın daki</w>
öne m
ar t</w>
m ış</w>
O n
J es
h er
Bi ble</w>
d in
t le</w>
tion al</w>
k ü
iz e</w>
s ür
so me
iy e</w>
es i</w>
ıy or
hak k
du c
de s</w>
un a</w>
ol o
t ut
ec t</w>
A B</w>
g o</w>
y ön
p o
Jes us</w>
th ose</w>
değ il</w>
c al
sa hi
i es</w>
t ır
se l</w>
an y</w>
ru p
l is
gü n</w>
b r
c or
ye ars</w>
c re
re e</w>
y as
w ar
şekil de</w>
c ri
d y</w>
w s</w>
v ing</w>
I n
a p</w>
di d</w>
0 0</w>
e ar
ak at</w>
es s
iy le</w>
fir st</w>
c e
on s</w>
s ec
or t
Ch ris
i d
mak e</w>
me t</w>
S ır
im iz</w>
s öz
u b
k in
le s
ım ız
m alar
a ted</w>
b an
li fe</w>
ne w</w>
al t
l l</w>
T i
iler i</w>
sa y</w>
N e
sin iz</w>
ler e</w>
k ö
ff er
de di</w>
da v
m iş
ev er</w>
ilgil i</w>
ül k
wor k</w>
c es</w>
man y</w>
v ed</w>
le y
iy or
ag a
dığ ı</w>
t in
ı p</w>
re d</w>
ın ız</w>
h at
i ce</w>
d üz
d on</w>
m s</w>
c an
for e</w>
kon uş
si on</w>
ı t
im di</w>
th ings</w>
baş la
değ iş
Th ey</w>
f az
an ı</w>
e an</w>
v er</w>
n ed</w>
al ı</w>
ş öyle</w>
wh ere</w>
ti mes</w>
A v
a u
ac h</w>
ma y</w>
s ra
b az
pro b
ç oc
al s</w>
on om
re s</w>
ch an
thin k</w>
in s
me t
diy or</w>
te k
u k</w>
m ü
p lan
k ap
o f
Ti mes</w>
sa de
gör e</w>
c en
t ly</w>
wor ld</w>
1 2</w>
f ul</w>
v is
ol ma
ut sal</w>
u ğ
ev en</w>
b ü
g a
uy or</w>
as e</w>
lar ının</w>
1 5</w>
ch il
com e</w>
&apos; da</w>
ım ız</w>
s al
en ts</w>
&apos;n in</w>
i ç</w>
y et
on ly</w>
e qu
sh e</w>
tur e</w>
n ing</w>
st an</w>
R e
n ı</w>
sade ce</w>
si g
y eni</w>
al an
olduğ u</w>
o b
öğ ren
y on</w>
tak e</w>
u e</w>
b ac
1 1</w>
B aş
c al</w>
e p</w>
l ığ
w ant</w>
b unu</w>
ı lar</w>
di m</w>
ön ce</w>
m ost</w>
dur um
bel ir
zam an
y ıl</w>
sh ould</w>
er i</w>
go od</w>
g an
k ed</w>
ti c</w>
gö re
R om
B el
doğ r
I f</w>
h app
&apos; m</w>
lo w
İ n
sel f</w>
Europ ean</w>
il y</w>
y ay
ıla n</w>
li ğ
n ess</w>
aç ık
T ur
g es</w>
l it
f ark
k ıs
is ter</w>
H ow</w>
h iz
hakk ında</w>
en d</w>
ay r
c er
tü n</w>
re ally</w>
B ir
&apos; nın</w>
kon us
k or
ş u</w>
lar ına</w>
sa v
gö z
m ı</w>
e de
b or
ün ü</w>
te c
ün de</w>
st u
o s</w>
et ti</w>
s y
g in
t ır</w>
k es
ti ve</w>
Th at</w>
th r
ti k</w>
K ar
d ön
ff ic
tü m</w>
M u
se k</w>
re si
com m
k ab
i an</w>
ıs ı</w>
h ab
af ter</w>
c ar
tu ally</w>
m ış
a te
h um
00 0</w>
ler ine</w>
i on</w>
faz la</w>
h is
se ç
di ye</w>
sh all</w>
l ık
il k</w>
l s</w>
Ser bi
lar dan</w>
lik te</w>
n um
K utsal</w>
ve ya</w>
a ç</w>
2 0
ti n</w>
w ell</w>
bil ir
2 0</w>
u la
d il
th ers</w>
üy or</w>
l ü</w>
w r
ma de</w>
ye ar</w>
s ol
l ing</w>
b ek
f ri
E v
ac h
a tions</w>
y ük
over n
do wn</w>
ter s</w>
on u</w>
prob le
m ar
li y
ü m</w>
ol uş
Av rup
ec ek
bir i</w>
lar da</w>
baş ka</w>
ex p
su ch</w>
y er</w>
T ür
ler inin</w>
n a</w>
le t
do m</w>
me d</w>
t ür
A y
A ma</w>
Tur k
di c
th er
E U</w>
c l
res p
taraf ından</w>
o l</w>
v an
iz in</w>
dü ğ
u p
re as
d ür
bo y
a z</w>
ed on
ne ed</w>
may ı</w>
s un</w>
l us</w>
ay nı</w>
ı ca</w>
iri z</w>
b ar
j o
ü z</w>
en er
im i</w>
c el
&apos; in</w>
h as
lar la</w>
be ing</w>
is h</w>
f t</w>
mu ch</w>
g it
iç inde</w>
t ü</w>
r al
d ent</w>
sh ip</w>
A B
ne den
s ır
d ol
&apos; ın</w>
t ro
dığ ını</w>
ar asında</w>
dev am</w>
A s
f er
g y</w>
s ame</w>
pol iti
B ul
diğ ini</w>
in an
ti m</w>
diğ er</w>
ın ız
an i</w>
ac c
y i</w>
ay s</w>
P ar
in v
bir likte</w>
ol du</w>
in t</w>
g overn
is tiy
b ab
d ren</w>
be fore</w>
ç ünkü</w>
gün ü</w>
l ü
ma m
li ği</w>
söyle di</w>
bil e</w>
y ing</w>
at ing</w>
o t</w>
Avrup a</w>
i ğ
sahi p</w>
ou ght</w>
ac ak
N ow</w>
yar dım</w>
D av
karş ı</w>
in iz</w>
on un</w>
is t</w>
M in
o m</w>
s ur
z or
su p
&apos; ve</w>
si z</w>
e der
le ar
it u
t or</w>
hel p</w>
el er</w>
i ş</w>
ti es</w>
P ro
f am
&apos; ll</w>
t as
ge tir
f ul
e ver
un der
say s</w>
por t</w>
F or</w>
di ffer
ç ar
u st
f il
Kosov o</w>
eş it
i al</w>
iti es</w>
ha z
el y</w>
önem li</w>
w at
bü tün</w>
in deki</w>
ac tually</w>
coun try</w>
bac k</w>
ç a</w>
lo w</w>
e den</w>
o od</w>
b ro
ken di</w>
k no
t re
ou s
wi th
v al
M ar
or gan
us ed</w>
yak laş
Wh en</w>
chil dren</w>
Chris ti
c k</w>
ac e</w>
ch o
lit tle</w>
some thing</w>
ti k
m p
du k
thr ough</w>
F akat</w>
ne den</w>
ım ı</w>
do es</w>
r y</w>
s in</w>
si de</w>
G re
de f
ci p
ec e</w>
doğr u</w>
ati ve</w>
k o
ow n</w>
b ot
ler de</w>
th ree</w>
g er</w>
g ed</w>
en ti
h ük
d ü</w>
gü ven
l in
l ında</w>
u ç
lik le</w>
E ğ
A c
p en
s il
du m</w>
h ur
op er
re t
et i</w>
han gi</w>
s ed</w>
in st</w>
yo k</w>
düz en
ey e</w>
g is
çık ar
n er
er ek</w>
w ays</w>
Ş imdi</w>
kad des</w>
mas ını</w>
ç ev
ola y
k az
re la
a ş</w>
par t</w>
An cak</w>
gel iş
k im
ı dır</w>
iler in</w>
s at
b en</w>
re ad
gör ün
il iş
kin d</w>
y en
is tan</w>
aga inst</w>
so ci
c ol
f ol
baş kan
M es
c ou
Y ah
lo ok</w>
ola c
H ır
kü ç
değ il
1 6</w>
Th ere</w>
p ut</w>
p ow
inc i</w>
i f
Sır bi
Mu kaddes</w>
ek i</w>
U ni
mas ına</w>
Kosov a</w>
baz ı</w>
gi ve</w>
1 4</w>
üzer inde</w>
na tional</w>
gü ç
ola cak</w>
t ığ
de ste
çoc uk
hay at
s üre
a il
p ub
kat ıl
sp ec
an ce</w>
üz ere</w>
st ru
i e
c our
S ou
Y ani</w>
la s
l and</w>
li c
19 9
we en</w>
en in</w>
govern ment</w>
e z
ti tu
i ma
al ım</w>
B ak
çar p
d iler</w>
y al
et mek</w>
M ak
ar ı</w>
ar d</w>
bu il
te s
lo ve</w>
pro j
ı ları</w>
i de
at h</w>
l ığı</w>
1 3</w>
in ce</w>
me di
B un
bet ween</w>
ç oğ
te ki</w>
S E
s ın
lar ında</w>
değ er
lu k</w>
ih tiy
for m
ac t</w>
an y
S on
ex amp
tri es</w>
o d
Tür k
ı cı</w>
bun un</w>
ler den</w>
pla ce</w>
B ur
yer ine</w>
les s</w>
3 0</w>
te si</w>
ken d
H er
abil ir</w>
im por
e m</w>
an other</w>
la st</w>
de m
a ul</w>
Bul gar
man ın</w>
ti v
ol mak</w>
c y</w>
alar ı</w>
ins an</w>
gerçek ten</w>
s ü
k oy
G er
men ts</w>
g ir
, 000</w>
A T
mey i</w>
konus unda</w>
per i
ol e</w>
cal led</w>
t aş
tiğ ini</w>
dı ş
b öyle</w>
B en</w>
k it
equ al</w>
b ana</w>
1 7</w>
h o
kiş i</w>
b re
en s</w>
et kil
an ın</w>
J o
e very</w>
v en</w>
Eğ er</w>
kab ul</w>
t ab
d n</w>
c ame</w>
s et
su b
st r
ır ak
c ul
siz e</w>
M on
B os
b ra
S e
ı da</w>
ow ever</w>
mi ght</w>
yo k
sun uz</w>
Rom an
O r
impor tan
5 0</w>
te k</w>
inc lu
he m</w>
ta m</w>
len dir
ta in
W or
n olo
c ed</w>
e de</w>
Wh y</w>
ver il
İ ş
ay ı</w>
gö n
ess es</w>
qu es
Sırbi stan</w>
ü ç</w>
vi e
ti s
dav ran
e bil
t old</w>
K en
x t</w>
ru h
gr am
m ut
no k
ever y
bo dy</w>
b ırak
m ust</w>
st ra
l ov
b in</w>
sp e
e ach</w>
coun tries</w>
Ç ünkü</w>
ben im</w>
öy le
A s</w>
ti ği</w>
su ç
in a</w>
yar at
L et</w>
küç ük</w>
C um
Bel gra
M ac
lo ok
de ş
u d
p a
p er</w>
p le
C on
A mer
es inde</w>
p as
st or
G en
E n
ağ ı</w>
el ec
ad an</w>
em ent</w>
İ sra
kay n
f a</w>
num ber</w>
s ız</w>
y le</w>
c ur
&apos; a</w>
fark lı</w>
kaz an
I sra
st ri
ar ound</w>
k aç</w>
in de
go t</w>
ou se</w>
or lar</w>
th ough</w>
ler inde</w>
gerçek leş
Kit ap</w>
le c
ı c
n or
d ar
c ü</w>
gör üş
ün e</w>
Türk iye</w>
m ov
1 8</w>
an laş
al ar</w>
açık la
on d</w>
the ast</w>
ler le</w>
Min ister</w>
or du</w>
ç öz
di rec
gu la
ik a</w>
ul us
uz un</w>
eler i</w>
b lo
B al
i den</w>
differ ent</w>
yan i</w>
me z</w>
cor ding</w>
fin d</w>
l ine</w>
hük ü
con tin
examp le</w>
yo l</w>
g az
i g
d ra
for m</w>
y at
wh y</w>
an n
2 5</w>
ben z
ü st
dı m
st ill</w>
uy g
Sou theast</w>
stru c
con s
E r
iliş k
wh ile</w>
le m
H er</w>
ma z</w>
on a</w>
M il
gre at</w>
amp ;</w>
& amp;</w>
ola bilir</w>
Turk ey</w>
ta in</w>
al ın
li c</w>
ul t</w>
Kit ab
ç ek</w>
ec onom
abil ir
a di
ger i</w>
li on</w>
hi ç</w>
s ek
ar et</w>
ıy orum</w>
f ound</w>
Ş ah
bot h</w>
S ay
sağ la
du r</w>
i tion</w>
P ri
w an
m us
tü r</w>
k an</w>
se t</w>
e diy
min is
P et
kon u
top l
t il
st ar
k ır
b ers</w>
c ap
ma t
yaş am
sy ste
r os
h ed</w>
f ik
p age</w>
an d
N e</w>
ec ted</w>
un c
son r
it n
dı lar</w>
e diyor</w>
ol ur
y ı</w>
te ş
&apos; de</w>
G e
t u</w>
bir çok</w>
do ing</w>
th s</w>
iy orum</w>
Serbi a</w>
d an
di k</w>
ne t</w>
war d</w>
is su
ol duk
y p
bur ada</w>
C ro
C om
ch ar
öyle ce</w>
te me
mes ini</w>
j i</w>
biz e</w>
ar ası</w>
ra r</w>
miş ti</w>
po int</w>
bec ome</w>
re f
ek onom
dı k
le v
insan lar</w>
on es</w>
or s</w>
h iç
D ün
k aç
yapt ığı</w>
si ble</w>
g an</w>
v ir
et s</w>
gen er
ö z</w>
al is
s iste
tr ans
karş ı
göre v
anla m
un der</w>
SE Times</w>
p s</w>
ör ne
importan t</w>
Y un
c ent</w>
B il
fam ily</w>
baş ar
s es</w>
s ız
ıl ı</w>
op e</w>
i fa
bi ra
i ous</w>
s ki</w>
le n</w>
b in
e dec
sel ves</w>
dün y
un ca</w>
g ro
eceğ ini</w>
har ek
mes ine</w>
kar ar
yap ıl
of f</w>
kar deş
el de</w>
mem ber</w>
ou t
bi ri
ic a</w>
on ları</w>
res s</w>
ag re
m ark
for ma
he p
o thers</w>
f akat</w>
a way</w>
ar e
th y</w>
gel en</w>
ver di</w>
bilir siniz</w>
W ell</w>
l ong</w>
Hır v
w ent</w>
ğ in</w>
to o</w>
el ik</w>
d al
lar ından</w>
ıy oruz</w>
ti ş
chan ge</w>
pro duc
S o
an da</w>
ç ağ
pro c
ıl ık</w>
hal k
i h</w>
lo t</w>
vi de
Mac edon
ear th</w>
B unu</w>
n av
aga in</w>
G ün
hum an</w>
resp on
&apos; daki</w>
ti ri
en ed</w>
itn esses</w>
f es
ad aki</w>
M er
öz el
e bilir</w>
al ity</w>
dev el
pro gram
var dı</w>
k u
ic al</w>
s ı
f ar
iz de</w>
n ame</w>
dur ing</w>
f re
to day</w>
in ess</w>
sor un
pow er</w>
re li
P aul</w>
ap pro
sp ir
f el
o g
say ing</w>
ü s
Ay r
b eni</w>
oluş tur
a tes</w>
N AT
comp le
2 4</w>
o men</w>
lu ğ
o ff
ta h
ah a</w>
der s</w>
ver s
b ah
d ör
o ffic
B en
st and</w>
oun g</w>
insan ların</w>
s es
Cro ati
B y</w>
1 9</w>
ol ur</w>
ol may
si yas
h ouse</w>
un d
g ation</w>
sh ow</w>
ing dom</w>
ler inden</w>
bi t</w>
h and</w>
başkan ı</w>
pro vi
bi z</w>
ti m
im izi</w>
day s</w>
ge ther</w>
K ur
ken di
per son</w>
t un
ar kad
di vi
k om
comm un
e ur
y ür
s qu
s ure</w>
ri gh
iy et
g g
me z
ke z
n s</w>
D em
hiz met</w>
i b
s m
ne ver</w>
NAT O</w>
ıl ığ
ü ç
ne g
ei g
ec ts</w>
h ol
z e
le me</w>
malar ı</w>
Al ban
B unun</w>
ne xt</w>
tar ih
proble m</w>
p ay
şey ler</w>
an lar</w>
de s
p i
K on
yaklaş ık</w>
W itnesses</w>
anla t
biz im</w>
le ft</w>
Ö r
B u
yüz de</w>
ar as
uc u</w>
tro l</w>
aş tır
ha f
r ap
l il
read y</w>
to gether</w>
con si
S t
c um
per son
in s</w>
Ar nav
lar arası</w>
ç i</w>
Isra el</w>
un dan</w>
ic i</w>
ün ün</w>
he art</w>
c le
2 1</w>
te l
t on</w>
to ok</w>
ımız ı</w>
fol low
O ne</w>
ra ğ
es ki</w>
Cum hur
r as
yar dım
haz ır
ad am
üzer ine</w>
O R
mil yon</w>
p ur
P eki</w>
ger çek</w>
i de</w>
dis c
t al</w>
B o
l us
kö tü</w>
duğ u</w>
ab a</w>
b est</w>
gh ter</w>
san ız</w>
ma l</w>
P av
e di
tu res</w>
f ut
ic ture</w>
ak e</w>
am ong</w>
&apos; e</w>
&apos; dan</w>
gr ou
cour se</w>
mış tı</w>
dı k</w>
et me
Y ar
el im</w>
he ad</w>
u laş
c ev
eğ er</w>
u lar</w>
F ran
Ayr ıca</w>
Ev et</w>
il e
k et
A f
as lında</w>
el e</w>
b al
yaş ay
y öne
p lus</w>
o p</w>
den ce</w>
m üz
wat er</w>
forma tion</w>
2 2</w>
ort aya</w>
ans w
yüz den</w>
H ay
a ve</w>
iy oruz</w>
yük sek</w>
hiç bir</w>
ke ep</w>
in f
Say fa</w>
c as
ma da</w>
ş imdi</w>
v ur
un to</w>
ot e</w>
yan ın</w>
n at
bira z</w>
N o</w>
s ık
eceğ i</w>
fac e</w>
B an
şey i</w>
er k
i gh
h ız
Th en</w>
f our</w>
s ing</w>
men in</w>
ac ı</w>
wor ds</w>
g üz
syste m</w>
kor k
n er</w>
un i
ti ce</w>
ol ması</w>
D ev
Ne w</w>
vie w</w>
B e
p at
ke z</w>
in ed</w>
R AB</w>
s öz</w>
ma h
v ic
v a
at t
k at</w>
u tion</w>
ün den</w>
kar ar</w>
inc el
iri t</w>
u g
ek si</w>
üm üz
li ght</w>
fe el</w>
bo ok</w>
b us
hi gh
c ity</w>
with out</w>
e ff
Y er
m in</w>
Sır p</w>
B az
su z</w>
as s
ü c
ra f
arkad aş
um lu</w>
öğ ret
mu ş</w>
me ans</w>
k ov
i th
B r
re ad</w>
n un</w>
ad ır</w>
l ul
s cho
geç ir
bet ter</w>
d one</w>
1 0
ar ed</w>
fac t</w>
iç er
biz i</w>
z iy
ver diği</w>
p lo
M us
h ome</w>
he av
lar dı</w>
c es
p ris
im e</w>
me et
İ l
tur n</w>
boy unca</w>
lan an</w>
a ğ</w>
el i</w>
az ar
on lara</w>
s la
oğ lu</w>
Kar ad
tor s</w>
un uz</w>
gön der
em ber</w>
el i
de t
acağ ım</w>
on lar</w>
lan t
h ap
te ll</w>
wor d</w>
h ik
In ter
do k
mon ey</w>
S an
sh ow
ş ir
tr ue</w>
on ların</w>
lay an</w>
ip ç
av r
si mp
ö k
rec ei
B ec
ı ya</w>
Pav lus</w>
sin ce</w>
f ır
ıyor lar</w>
S he</w>
un la</w>
Christi an</w>
re gi
AB D</w>
politi cal</w>
th or
p ed</w>
D e
g in</w>
K ral
ç e</w>
topl um
Chris t</w>
p le</w>
et k
min us</w>
li ve</w>
sa k</w>
ti z
ey i</w>
gel di</w>
re por
S ar
Mes ih</w>
D aha</w>
at ten
y oung</w>
2 3</w>
la w</w>
p ek</w>
yap ılan</w>
lan dır
e der</w>
sec ond</w>
A fri
vi ce</w>
st ate</w>
eig n</w>
H e
s en</w>
al ways</w>
v o
s oru
te ch
l or
iyor du</w>
eğ iti
Mak edon
ç iz
w al
re ma
devel op
de ath</w>
öğren c
fe w</w>
he al
t ör
Şah it
spir itu
hiz met
yap mak</w>
n es
ıl dı</w>
zaman da</w>
su z
yon u</w>
k â
a j
ti l</w>
Bi H</w>
us u</w>
r ak
E l
te h
al an</w>
ex peri
kno w
fut ure</w>
deste k
kur ul
ma z
H ar
bel ie
A d
as k
k e</w>
lü ğ
f ic
an cak</w>
s ınız</w>
di dn</w>
da ğ
d ly</w>
&apos; ye</w>
pres en
abil iriz</w>
K ingdom</w>
w w
par t
p op
iler ini</w>
tak ipç
mal ı</w>
li m</w>
dec is
st art</w>
is ed</w>
bil gi</w>
pub lic</w>
Dav id</w>
Ö z
w omen</w>
pos sible</w>
i ght</w>
yapt ığ
yıl ında</w>
y et</w>
us ing</w>
me den</w>
inter es
top la
abil ity</w>
tal k</w>
m uş
M y</w>
il en</w>
fi ve</w>
Ör ne
d in</w>
k li</w>
ci al</w>
B ab
B ar
hab eri</w>
k as
li am
P er
öz el</w>
P ol
ad ı</w>
R us
tor y</w>
k im</w>
sp irit</w>
k ız
1 00</w>
O n</w>
g ing</w>
ülk eler
n et
lu k
la t
ne ws</w>
es ti
z ar
i ah</w>
et y</w>
k alar
te ly</w>
art ık</w>
Makedon ya</w>
c all</w>
ta ma
ıyor du</w>
diğ im</w>
eşit tir</w>
ap pe
r on
dör t</w>
R AB
cri p
ach ing</w>
up on</w>
n in</w>
wr it
le ad
Jo h
İn san
e as
ar aştır
c ase</w>
gör ül
uy la</w>
t ık
Yun an
ver si
g am
s ci
n ec
ta tion</w>
D o</w>
d ge</w>
um uz</w>
Bec ause</w>
mak ing</w>
A t</w>
sup port</w>
r ac
pr os
söy l
K om
duy ur
wh ole</w>
con gre
T o</w>
mis sion</w>
it al</w>
y al</w>
uy gula
me an</w>
m ul
i ans</w>
D oğ
t aki</w>
len en</w>
ci l</w>
A k
iz ed</w>
fa ther</w>
th ought</w>
J er
gerek en</w>
g s</w>
tr e</w>
ön c
w ar</w>
olac ak
hab er
g ru
c in
d at
4 0</w>
gi ven</w>
ola bil
son uç
re qu
ma d
laş tır
te le
or der</w>
H owever</w>
eş it</w>
s ad
v ek
ken in</w>
F or
ol sun</w>
kayn ak
bir kaç</w>
B H</w>
ma dan</w>
in formation</w>
day an
P resi
ar et
ar tı</w>
con cer
leş tir
fa ith</w>
es t
iş leri</w>
resi m</w>
y üre
P e
cou ra
L E
gi ri
d r
at ı</w>
neg ative</w>
ı s</w>
par a</w>
su c
tal ks</w>
mal ıy
h im
çarp ı</w>
en ing</w>
sür e</w>
Baş bak
Europ e</w>
yen iden</w>
Christi ans</w>
S ta
hi gh</w>
ex pres
ut h</w>
ot ur
ur ity</w>
stu dy</w>
par ents</w>
s itu
&apos; ya</w>
ı ların</w>
tek rar</w>
me ler</w>
ed s</w>
ko ş
b ul</w>
yet kil
rağ men</w>
Örne ğin</w>
a ther</w>
l on
I ma
tas ar
acağ ını</w>
b s</w>
e duc
K or
başla dı</w>
be y
pos ition</w>
neden le</w>
Arnav ut
gr ap
i ons</w>
belie ve</w>
Al l</w>
sü rec
ce ma
aş ır
d önem
se ar
ha v
c ut</w>
A N
se y
la ter</w>
par ti
par ç
u res</w>
2 8</w>
uğ r
siyas i</w>
ol an
har d</w>
ag o</w>
we h</w>
Serbi an</w>
Yah weh</w>
g ı
at or</w>
güz el</w>
en ds</w>
Ç ok</w>
de sig
M at
ola y</w>
oper ation</w>
proc ess</w>
i v
ut e</w>
mo de
star ted</w>
I s</w>
öl dür
Macedon ia</w>
lar ıyla</w>
mer kez
ş eh
ut ers</w>
in ing</w>
he men</w>
a it</w>
ü r</w>
d ro
çoğ u</w>
mo ve</w>
yaş am</w>
Th ese</w>
has tal
tu r</w>
mem bers</w>
hat ır
in izi</w>
in ted</w>
bir bir
bi t
l ük</w>
Hırv ati
Presi dent</w>
ous ly</w>
Joh n</w>
t iler</w>
proble ms</w>
alt ında</w>
a bi
k es</w>
br ing</w>
2 7</w>
ü t
uş tur
Hırvati stan</w>
wh e
y u
vers ity</w>
tak en</w>
me v
d ru
S ome</w>
inclu ding</w>
gaz e
reli gi
&apos; d</w>
g et
om an</w>
ım a</w>
h in
den ts</w>
l ıyor</w>
L OR
&apos; un</w>
ap ın
ın t
t ığı</w>
of ten</w>
gerek tiğini</w>
ov iç</w>
u al</w>
la ma</w>
min d</w>
Son ra</w>
LOR D</w>
te st</w>
af f
un ları</w>
st at
stan bul</w>
bu la
li dir</w>
au thor
iş le
L i
s ar
ag es</w>
yal n
dün ya</w>
un til</w>
z or</w>
inter national</w>
L e
2 6</w>
th ir
p ot
k am
ır ım</w>
U n
wan ted</w>
c ep
in te
B öylece</w>
bil dir
li ving</w>
ler iyle</w>
e -
g es
el ek
im de</w>
bil g
durum da</w>
yak ın</w>
her hangi</w>
h ope</w>
Turk ish</w>
econom ic</w>
ey gam
en tly</w>
Bur ada</w>
v ak
bun a</w>
e b
s ak
m b
sal dır
v il
S on</w>
U lus
s u</w>
c ade
Kit ap
si on
iş bir
ir e</w>
e v</w>
Dün ya</w>
olac ağ
As lında</w>
aras ındaki</w>
under stand</w>
ar d
T E
A R
M ay
ız ı</w>
ö r</w>
fi ed</w>
uyg un</w>
M os
Af ter</w>
S u
nok t
yaş ad
1 8
gör düğ
re al</w>
f ar</w>
or d</w>
L a
la dı</w>
com ing</w>
s am
ques tion</w>
stan d
ter n</w>
con f
ül ke
iy il
inv ol
en di
ti p
S at
İsra il
ad am</w>
v et
lear n</w>
r i</w>
in ş
an g
On lar</w>
w in
mas ının</w>
i ve</w>
iler ine</w>
diğ imiz</w>
acc ep
var dır</w>
de k</w>
k ut
0 6</w>
ab ly</w>
s k
t ık</w>
E x
al ready</w>
üy or
örne k</w>
ov ic</w>
lan gu
mak tan</w>
co -
sa w</w>
tic al</w>
Y ak
far k</w>
istiy orum</w>
ül kenin</w>
bulun an</w>
uy ar
i dir</w>
c i</w>
belir t
cen tur
him self</w>
sen iz</w>
re port</w>
mek te
mar ri
e fore</w>
0 7</w>
um u</w>
st s</w>
oğ ul
eceğ im</w>
&apos; den</w>
sın ır
spiritu al</w>
pol ice</w>
me leri</w>
ef for
Ne den</w>
y our
ide a</w>
0 5</w>
Pri me</w>
g t</w>
es p
A F
w ing</w>
bağ ım
Belgra de</w>
Bos ni
ö v
ga ve</w>
G et
congre gation</w>
Croati a</w>
Bak anı</w>
İş te</w>
O l
geç en</w>
bec ame</w>
with in</w>
de ci
or y</w>
pro tec
öl üm
ou gh
Belgra d</w>
ni k</w>
mü cade
Y es</w>
güç lü</w>
öl ç
ken dis
L au
sin den</w>
s ou
P icture</w>
h old</w>
yan l
dün yanın</w>
du k</w>
know le
ha ving</w>
e ve</w>
ener gy</w>
iler inin</w>
b es
li der
Ö n
mal ar</w>
ıs ında</w>
s ın</w>
0 4</w>
ci d
ac cording</w>
abilir siniz</w>
m it
al dı</w>
me as
as ked</w>
ınız ı</w>
re d
iy et</w>
N a
scho ol</w>
6 0</w>
ı t</w>
r .</w>
B üy
c are</w>
yar ar
k o</w>
grou p</w>
ti f
ma j
ifa de</w>
wor king</w>
cl os
or ada</w>
f ood</w>
kal dır
S p
0 9</w>
se ver
w il
bu gün</w>
bas ed</w>
en ces</w>
sav aş
bel i
kad ın</w>
değil dir</w>
tech nolo
ce z
ç ab
D i
mon ths</w>
w oman</w>
p ra
reas on</w>
c a
to p</w>
the m
e gr
le mek</w>
tr uth</w>
m u</w>
1 .
m other</w>
z er
mak t
ama c
sen in</w>
ıla cak</w>
ulus lararası</w>
D o
S am
İsra il</w>
2 9</w>
sm all</w>
ful ly</w>
ful l</w>
tin a</w>
et e</w>
G ü
sen se</w>
ola s
Ac cording</w>
0 3</w>
ul y</w>
co mes</w>
yay ın
c ir
mil lion</w>
M o
th re
di t</w>
j u
edil en</w>
Yah u
ac k</w>
b at
d ak
M or
chil d</w>
Ima ges</w>
Arnavut luk</w>
st ate
g ı</w>
kiş inin</w>
S av
de li
pr ay
b a</w>
Get ty</w>
yet er
si ve</w>
ıy dı</w>
h en
Lau ghter</w>
S öz
hal f</w>
di a</w>
me sa
kar a</w>
J an
ş im
ekonom ik</w>
y se</w>
ch ed</w>
U N
per cent</w>
ama ç
im p
ex pla
kad ın
Uni ted</w>
disc us
cip les</w>
Mon ten
C en
contin u
D an
m ik
Monten egr
them selves</w>
pe ace</w>
be gan</w>
situ ation</w>
h owever</w>
kit ab
A b
al ık</w>
at er</w>
ol uyor</w>
H al
üm k
ne dir</w>
T em
k ral
t ım</w>
ıl ık
stan ding</w>
0 8</w>
a w
ra da</w>
al ış
eur os</w>
D P</w>
se en</w>
bil iriz</w>
İ b
w el
sağ lay
p ut
ik inci</w>
ni te
g ür
every thing</w>
w on
A h
hükü me
lis hed</w>
değiş tir
Wor ld</w>
bi g</w>
w on</w>
di ri
ren g
K r
f o
pr ac
k op
vir on
vide o</w>
par tic
ülk e</w>
ıl mış</w>
il ere</w>
h es
h u
on ce</w>
um a</w>
Re uters</w>
yer yüz
haf ta</w>
f ur
sa h
ış ı</w>
br ought</w>
di tion</w>
a der</w>
k ol
Y e
sav aş</w>
W ith</w>
et meye</w>
ser ve</w>
ıy ı</w>
me liy
B M</w>
or an
is h
pr in
ıl ması</w>
meet ing</w>
Sta tes</w>
İ ç
ma ğ
ı dan</w>
si y
w as
wr ite</w>
1 5
K an
İ s
gö k
ear ly</w>
pri v
aç ık</w>
il i</w>
jo y</w>
fa al
es n</w>
s an</w>
geliş tir
olmay an</w>
ok uy
kıs a</w>
e ded</w>
ley en</w>
h ey
son unda</w>
gen el</w>
res t</w>
J os
b ed</w>
değiş ik
l os
incel e
sır a</w>
ar ing</w>
P art
d ri
D ur
look ing</w>
w ro
ins titu
ar a</w>
p ic
p eygam
or t</w>
te p
sev en</w>
yap tı</w>
S ec
Ç oc
ter r
ac tion</w>
ro w</w>
mekte dir</w>
as k</w>
Y or
t on
in dic
R es
kur tar
ta mam
an lay
kno wn</w>
form er</w>
dur um</w>
be ş</w>
an k</w>
Bulgar istan</w>
olduk ça</w>
dik leri</w>
Gre ek</w>
fe el
s ac
tek nolo
i als</w>
diğ inde</w>
s ab
m ümk
he def
tama men</w>
de y
C oun
F il
dön üş
ayr ıca</w>
lo cal</w>
ıs ıyla</w>
gi der
do esn</w>
AF P</w>
karşı laş
pro ph
si ons</w>
ab an
g en</w>
N o
are a</w>
Yunan istan</w>
organ iz
j our
Y az
f ree</w>
en gel
di sp
3 1</w>
wi fe</w>
yaşay an</w>
wor ks</w>
p ose</w>
bus iness</w>
ul an
any thing</w>
acağ ız</w>
ni ght</w>
mam ız</w>
me di</w>
i ally</w>
mi d
iti ve</w>
ic ally</w>
fin an
A p
follow ing</w>
ben ef
gel iyor</w>
kiş iler</w>
c la
a i
mu h
uz u</w>
ot s</w>
U N</w>
p t</w>
S A
bun lar</w>
seç im
wro te</w>
siste m
ün deki</w>
ye tiş
es inin</w>
v ol
sh ip
or i
hal e</w>
ti re
g al</w>
y si
some one</w>
can not</w>
w ise</w>
dik kat</w>
b al</w>
Karad ağ</w>
ü cre
st reng
pre si
con tr
J e
r ol
stan ce</w>
si x</w>
uz ak
m üş
ilgil en
di es</w>
war ds</w>
re fer
o ffer
n eler</w>
J u
&apos; i</w>
ur al</w>
re al
whe ther</w>
t apın
ler ce</w>
bağ lı</w>
M an
per f
siz in</w>
gen ç</w>
ac coun
s our
teme l</w>
ek ler</w>
mat ter</w>
&apos;n un</w>
le di</w>
B iz</w>
educ ation</w>
y -
n ot
kur um
en ough</w>
he ard</w>
mon th</w>
tak ing</w>
h or
inc re
divi du
mak es</w>
O h</w>
eğ i</w>
sahi p
dü m</w>
h â
O ur</w>
ma te</w>
h t
d on
ok ul
is m</w>
el d</w>
büy ü
mak la</w>
t able</w>
al tı</w>
T op
contin ue</w>
di ffic
li ves</w>
der ed</w>
pay laş
or din
özel likle</w>
acağ ı</w>
S h
m y
it ing</w>
k ül
A K
we ek</w>
no thing</w>
issu e</w>
ar aya</w>
p lay
ge ment</w>
tar t
tan ım
ic s</w>
mü ş</w>
ön ünde</w>
tur ned</w>
sor um
la tion</w>
R u
B er
olo g
le k
I C
ş id
heal th</w>
p ing</w>
c ha
çoc uğ
tut uk
Roman ya</w>
hal de</w>
da m</w>
m ir
th ou</w>
pres ent</w>
im pro
v el
ımız da</w>
sev in
y ine</w>
konu da</w>
y ere</w>
mem iz</w>
et me</w>
K al
ç eşit
yan ı</w>
il di</w>
minis try</w>
m un
in dividu
j ud
t ou
ay ır
is ter
A t
iri m</w>
ste ad</w>
an ti
Kitab ı</w>
ra tic</w>
sür dür
h on
alar ın</w>
U S</w>
tur al</w>
os yal</w>
yer de</w>
ey es</w>
mış tır</w>
ler im
yaş an
du a</w>
makt adır</w>
f al
s ing
sp ok
is ini</w>
cl ose</w>
e f</w>
ch al
P h
en viron
inc reas
al e</w>
N ov
ü f
yüz yıl
regi on</w>
me sel
an l
c u</w>
pos ed</w>
Bulgar ia</w>
i ği</w>
t ot
ma ter
as ını</w>
İn gil
re gar
b ri
bil gis
olma dığını</w>
S or
stra te
bek len
siz i</w>
art ır
Y eni</w>
ort ak</w>
buil ding</w>
re presen
böl ü</w>
miş tir</w>
H ol
si bil
g lo
et tiğ
iyor lar</w>
v at
happ ened</w>
our s</w>
gel ir</w>
do lay
zor unda</w>
answ er</w>
İ stanbul</w>
knowle dge</w>
benz er</w>
f un
de ter
yardım cı</w>
sav un
ib ade
suc c
tar y</w>
son s</w>
comp any</w>
ız ca</w>
ph ysi
k us
Y aş
get ting</w>
op en</w>
malıy ız</w>
yön elik</w>
s ent</w>
ıs ından</w>
hel d</w>
im z
E y
lan dı</w>
ama z
ti ves</w>
es tab
ar i</w>
pol ic
Gre ece</w>
al ong</w>
ros s</w>
an al
tan e</w>
wh om</w>
squ ared</w>
dat a</w>
k el
V er
y or</w>
ate ly</w>
m om
sec urity</w>
p ast</w>
s ine</w>
us u
chal len
ku v
ıl an
as ına</w>
ız a</w>
san a</w>
is ti
çoc uk</w>
k ı</w>
k av
ir an</w>
yol u</w>
Alban ia</w>
h und
de si
M ah
i red</w>
i den
A ğ
al ıyor</w>
so y
y iy
ruh i</w>
tr ying</w>
k et</w>
ar tic
ş unu</w>
l dn</w>
D en
dah il</w>
Cumhur başkanı</w>
ra k</w>
for ce</w>
&apos; ta</w>
mek ten</w>
H ak
C y
res ult</w>
ın ca</w>
ık ları</w>
te d
his se
dol u</w>
L o
g or
fi g
k uş
b ad</w>
ver se</w>
müz ak
hat ta</w>
uy u</w>
R o
f on
baş kalar
tart ış
y en</w>
mümk ün</w>
t yp
la k</w>
- -
m it</w>
centur y</w>
S al
ır ken</w>
liam ent</w>
as la</w>
c am
Ş ey
k r
G ör
la ck</w>
comp an
o -
lo c
du lar</w>
cer tain</w>
c li
struc tion</w>
ob j
kes in</w>
yap abil
söyl üyor</w>
Bal kan
soci al</w>
h os
A m
0 .
et h</w>
experi ence</w>
ihtiy ac
proj ect</w>
den ey
üy orum</w>
em in</w>
ma dı</w>
et tiği</w>
ul ts</w>
konus u</w>
d re
olduğ una</w>
w it
p ay</w>
M al
E n</w>
si k
vi ol
decis ion</w>
ch es</w>
w .
ch e
f oc
T u
bel ki</w>
al mak</w>
d le</w>
anlam ına</w>
mek te</w>
harek et</w>
pre ci
k oru
doğ an</w>
H az
ım da</w>
at s</w>
mey en</w>
lığ ın</w>
di z
sır asında</w>
la v</w>
ar ac
ser vice</w>
An kara</w>
N or
ha m</w>
im an</w>
ıs ını</w>
his set
g iy
c las
uy uştur
S te
baş ına</w>
ken t
thin king</w>
t ul
oc ratic</w>
Part y</w>
le ast</w>
davran ış
ol up</w>
I N
ön er
ne eds</w>
n al</w>
righ te
Montenegr o</w>
im le</w>
böl ge
mut lu</w>
dığ ında</w>
thir d</w>
ro om</w>
mo der
bro thers</w>
B or
ş unları</w>
L uk
Pet er</w>
u ç</w>
da ir</w>
t av
k i
a ten</w>
m iyor</w>
kend ini</w>
medi a</w>
bil in
ic k
ım ın</w>
S ade
M e
hak ik
fri ends</w>
a -
yan a</w>
sear ch</w>
S ol
H is</w>
langu age</w>
liy or</w>
iş i</w>
con trol</w>
dev let</w>
b uy
cid di</w>
di ed</w>
ü p</w>
böl üm
de st
Tür k</w>
R ep
vis ion</w>
Roman ia</w>
s ti
ı f
kes in
ser v
ques tions</w>
mil it
O k
E li
vi k</w>
ede bil
M ay</w>
us tice</w>
iş e</w>
sev gi</w>
. .</w>
D ec
iz den</w>
fi c</w>
m er</w>
du ce</w>
bi ç
dü k
Sade ce</w>
ok u
Bu gün</w>
val ue</w>
d os
en coura
ak ing</w>
ü st</w>
technolo gy</w>
A P</w>
i el</w>
ar ş
ımız ın</w>
başla t
ol sa</w>
insan ları</w>
ener ji</w>
o inted</w>
gener al</w>
C an</w>
kay bet
f unc
S crip
j ik</w>
j a</w>
h us
de fin
On un</w>
lis h</w>
ter m</w>
B öyle</w>
pos itive</w>
gerek iyor</w>
ber i</w>
se be
g ress</w>
fa ith
f iy
değ er</w>
B as
m ine</w>
doğ ru
ark en</w>
gel ecek</w>
ex per
bak ın</w>
de al</w>
öğ re
rec og
ıl maz</w>
C re
ou b
as a</w>
en ter
yap an</w>
kan ı</w>
G el
rela tion
gü c
oy n
inde pen
j e</w>
neden iyle</w>
mah ke
z en
sonr asında</w>
may be</w>
ne eded</w>
ın day
lar ge</w>
u lar
eler in</w>
Ge or
es ine</w>
u el</w>
ov ina</w>
a de</w>
1 2
ol s</w>
em plo
in ten
y ık
Ev en</w>
1 ,
Y ap
bo z
sh are</w>
m ol
m os
d ate</w>
yüz ünden</w>
gel en
exp ected</w>
O R</w>
ro l</w>
Şey tan</w>
T o
İl k</w>
c r
for eign</w>
ver en</w>
teş vik</w>
vis it</w>
s eni</w>
göster iyor</w>
ra hat
1 4
st re
as yon
cle ar</w>
kar ış
it a
buil d</w>
in ts</w>
Ge ç
s ok
dra w</w>
des cri
S lov
Yor k</w>
T H
lev el</w>
in k</w>
your self</w>
edec ek</w>
lar ca</w>
alt ına</w>
for ms</w>
Y our</w>
C or
sonr aki</w>
stor y</w>
eğiti m</w>
büy ük
Ö ğ
g ine</w>
om s</w>
la h</w>
i re
gra m</w>
so on</w>
or ity</w>
happ y</w>
ed in</w>
a ir
kap sam
e th
te dav
liğ ini</w>
k ah
Wor d</w>
lear ned</w>
ge l</w>
ard ından</w>
k olay</w>
b öylece</w>
le ave</w>
Uni versity</w>
mes inin</w>
gu e</w>
gö tür
a th
fa il
T ar
hal ine</w>
M any</w>
cema at
on ay
st ates</w>
ü ğ
y di</w>
por tun
H as
wr ong</w>
az ar</w>
s ık</w>
me tre</w>
un luğ
kon trol</w>
ot oğ
Baz ı</w>
blo od</w>
L ord</w>
Ger çek
di stri
Kom is
c u
al most</w>
bil lion</w>
ı lar
İ ki</w>
r an</w>
pro m
Ay nı</w>
el likle</w>
la m
C ar
go es</w>
Kitab ın</w>
k ey</w>
dü r</w>
bü t
ne igh
lik ely</w>
y ar</w>
oun t</w>
l â</w>
l t</w>
comm on</w>
C an
uy or
mes sa
im izde</w>
o v</w>
D r.</w>
p ati
ing ly</w>
deste k</w>
c il
un ut
li gh
re member</w>
ann oun
Wh o</w>
str ong</w>
mak ta</w>
h a</w>
la n</w>
a may
insan lara</w>
comm it
pla n</w>
op portun
el se</w>
ilişk in</w>
ti rec
me d
he ad
com man
yak ın
hik ay
teh lik
top lant
fel t</w>
Ş u</w>
iy eti</w>
Bun lar</w>
Bal kan</w>
&apos; deki</w>
f av
alar ını</w>
ay ında</w>
kıs m
d ar</w>
con duc
spec ial</w>
commun ity</w>
tr an
r ar
par ty</w>
E U
iy di</w>
e ş</w>
ula tion</w>
ziy aret</w>
n ation</w>
W at
spe ak</w>
v an</w>
bun ları</w>
ç ap
wor k
s um
fur ther</w>
is inin</w>
g ın</w>
me et</w>
g iz
baş lay
d ana</w>
J un
is ts</w>
gr ound</w>
as ının</w>
ör gü
7 0</w>
gen ç
t ine</w>
F rom</w>
yanl ış</w>
ula n</w>
a ir</w>
s us
inş a</w>
el s</w>
sor t</w>
her kes</w>
den e
mark et</w>
la men
h am
sor un</w>
issu es</w>
son uc
pol is</w>
gör ü
ma in</w>
y or
H an
k utsal</w>
il mesi</w>
k ri
tic s</w>
o id</w>
ci tiz
F ather</w>
S ü
diffic ult</w>
vi l</w>
f lo
re le
ma in
bor n</w>
N ot</w>
la mak</w>
şey leri</w>
5 00</w>
y av
uyg ulan
la k
esp ec
dec lar
us es</w>
il k
hol y</w>
lu m</w>
yük sel
hay van
y la</w>
ev i
ab er</w>
me an
es ini</w>
ede yse</w>
prob ably</w>
düzen le
ıl ığı</w>
iş te</w>
f as
K ı
mu r</w>
faal iyet
der ece</w>
fi eld</w>
f f</w>
değer lendir
consi der</w>
bilgis ay
inter est</w>
en ler</w>
müzak er
G ener
D iy
Sat an</w>
his tory</w>
espec ially</w>
he ar</w>
mil let
k em
süre kli</w>
om in
m ur
o ds</w>
&apos; te</w>
Th ank</w>
200 4</w>
ý n
b and</w>
si mil
happ en</w>
d öne
yaln ızca</w>
in iti
ch ing</w>
çağ ır
t at
mov ed</w>
kal k
c ust
Coun cil</w>
say esinde</w>
tak es</w>
ot o
mücade le</w>
ö de
gi ving</w>
vis i
Rus si
the e</w>
pro fes
istiy or
İ k
ün üz</w>
agre ement</w>
D ış
n or</w>
T ama
O f</w>
at ure</w>
bağ ış
kullan ıl
K as
rap or
c ar</w>
ı lara</w>
R ec
k uz
üy e</w>
y um
ho ş
gön ül
y ağ
li es</w>
T er
N ik
Ü ni
koş ul
co- operation</w>
tığ ını</w>
l ost</w>
is t
na tions</w>
B ü
sp ace</w>
hal a</w>
bra in</w>
c lu
person al</w>
S i
c ause</w>
tal king</w>
mil yar</w>
yer el</w>
pla y</w>
mek le</w>
ad ded</w>
kan ıt
eş tir
G ül
state ment</w>
fig ure</w>
ımız a</w>
w is
resp ect</w>
T im
P azar
bo ş
in t
be gin
sa at</w>
RAB bin</w>
milit ary</w>
N asıl</w>
ww w.
provi de</w>
o il</w>
1 6
aç ısından</w>
T üm</w>
ol mas
sa at
H at
s ü</w>
nat ural</w>
n ek
f iz
r un</w>
M ic
8 0</w>
işbir liği</w>
ar ly</w>
us al
mak al
dık ları</w>
doğ al</w>
Pe ople</w>
3 5</w>
bun ların</w>
sever al</w>
se e
ih ti
con t
bo l</w>
de ad</w>
as ed</w>
kim se</w>
i e</w>
ar ab
dik kat
erk ek</w>
p an
it self</w>
y an</w>
ek s</w>
geç er
Mos es</w>
3 2</w>
han ds</w>
un daki</w>
n üf
k ıy
Ben im</w>
düny ada</w>
belirt ti</w>
yap maya</w>
O c
g al
n ers</w>
diğ iniz</w>
eğ ini</w>
di st
O r</w>
eğ im</w>
ö dü
er ed</w>
r ing</w>
Mon day</w>
lığ ını</w>
k new</w>
and aş
Başbak an</w>
fam il
Y a</w>
Jer usal
Ü l
Jerusal em</w>
in le</w>
K ad
il miş</w>
apos tle</w>
E g
Inter national</w>
b les
al t</w>
acak tır</w>
T ek
200 7</w>
dığ ımız</w>
bun dan</w>
cul ture</w>
Y u
h op
Amer ika</w>
lar dır</w>
ach ed</w>
şid de
is ten
alar ında</w>
ç er
st er</w>
im in</w>
hap s</w>
c ro
I M
nec ess
mem ber
insan ın</w>
Y ine</w>
ev i</w>
ou th</w>
tre at
qu e</w>
an ne</w>
sen ti
açıkla mada</w>
li f
v ec
ei ther</w>
y aban
offic ials</w>
L A
ad lı</w>
g ar</w>
Bü tün</w>
on -
di tions</w>
bro ther</w>
Y ug
Yer uş
yür ü
hâ lâ</w>
ang le</w>
l ying</w>
st ing</w>
malar ını</w>
cre ate</w>
Yeruş al
le gal</w>
co m</w>
la di
ser van
Yug os
eder ek</w>
çağ r
gerek ir</w>
say ıda</w>
jo b</w>
glo bal</w>
gel ecek
sev iy
A re</w>
hum ans</w>
bak an
author ities</w>
w er</w>
parti cip
e at</w>
s osyal</w>
de sp
E R
se mb
bulun du</w>
recei ved</w>
al le
lık lı</w>
f ru
b a
oluş an</w>
t -
ap er</w>
ne ar</w>
Kı br
mul tip
ra ther</w>
sorum lul
bi re
S ev
Dem ok
Pazar tesi</w>
en d
gö z</w>
ke ş
as h
pro mis
G al
c ing</w>
k ası</w>
bil iyor
as soci
hep si</w>
I N</w>
ef ul</w>
m iyorum</w>
si yle</w>
F in
su gg
may ın</w>
tar z
nor mal</w>
le ad</w>
J a
tan ı
r ul
200 5</w>
li er</w>
tu ğ
ne w
pro v
im li</w>
mey dana</w>
f ron
duy gu
tü re
tr al</w>
la y</w>
g un</w>
Mar ch</w>
ha te
fil m</w>
din iz</w>
ay ak
sci enti
k ir
am ı</w>
st a
0 1</w>
Büy ük</w>
G o
Hay ır</w>
lead ers</w>
ad van
H av
k in</w>
ifa de
fe ar</w>
ed in
K ing</w>
t ar</w>
pro te
a f</w>
ay n
recog n
B ey
kö t
şek l
ç if
val u
uyuştur ucu</w>
stu dents</w>
artic le</w>
yo ğ
ler di</w>
our selves</w>
kil o
peri od</w>
bulun uyor</w>
la te</w>
F OR</w>
su ffer
pro gress</w>
der ec
lit er
k ür
g ay
ar z
ad d
hay al</w>
S un
haz ır</w>
look s</w>
N A</w>
200 6</w>
güven lik</w>
D er
üy le</w>
iler le</w>
Gener al</w>
re form
dış ında</w>
p et
Th e
söz leri</w>
k oc
çık an</w>
ul u</w>
ma ş
öz gür
H ere</w>
G ök
der in</w>
are as</w>
Croati an</w>
Üni versi
com for
dru g</w>
re j
b om
200 8</w>
wor ship</w>
har ika</w>
c y
üy oruz</w>
con fi
olacağ ını</w>
men tal</w>
faith ful</w>
da u
a ut
vat andaş
effor ts</w>
eler ini</w>
yıl lık</w>
relation ship</w>
P ris
M art</w>
İ yi</w>
ger s</w>
M a
oun ds</w>
Gerçek ten</w>
mas ında</w>
tiğ imiz</w>
sub j
si des</w>
amac ıyla</w>
çık tı</w>
pro f
ılığ ıyla</w>
qu ite</w>
pre par
ie f</w>
c op
N is
0 &apos;
ner edeyse</w>
S y
sig ned</w>
2 .
de mek</w>
servan ts</w>
ayr ıl
ay an</w>
S en</w>
şir ket
l o</w>
bil iyoruz</w>
Mus a</w>
ün cü</w>
ser ved</w>
c ısı</w>
Çoc uk
sing le</w>
1 7
pur pose</w>
tür ü</w>
o z
0 2</w>
ay ım</w>
is el</w>
Bosni a</w>
konuş an</w>
E S
st op</w>
r ole</w>
r us</w>
g ri
M ıs
fir e</w>
.. ..
mu z</w>
re turn</w>
el ç
te ach
olacak tır</w>
U z
ad ım</w>
enti al</w>
bir inin</w>
şey in</w>
ınız da</w>
tem sil
h y
g ets</w>
D on</w>
Y ük
z ih
B ro
B ana</w>
hate ver</w>
ge tiri
ay d
sci ence</w>
ot h</w>
ac ti
ter ms</w>
e dom</w>
stan dar
over ed</w>
pres s</w>
D iğ
ther efore</w>
si l</w>
Wh ile</w>
on al</w>
religi ous</w>
S ep
ce den</w>
au ti
jour n
hin d</w>
ğ ini</w>
perf ect</w>
Uni on</w>
deci ded</w>
pla ces</w>
es ts</w>
min ister</w>
ei ght</w>
di e</w>
Dec ember</w>
T r
Jun e</w>
Her sek</w>
gerçekleş tir
cev ap</w>
Ulus lararası</w>
cor rup
söy len
re t</w>
kur tul
ger ek</w>
üs ü</w>
sibil ity</w>
en cy</w>
in es</w>
T adi
2 00</w>
messa ge</w>
ver mek</w>
J ust</w>
Eg yp
C ol
ye di</w>
institu tions</w>
ac ross</w>
fri end</w>
be hind</w>
k af
Oc to
edil di</w>
Alban ian</w>
interes ting</w>
b an</w>
ro ad</w>
chan ges</w>
dir il
con tri
karş ılık</w>
sh e
ste p</w>
off ice</w>
ni fic
Kıbr ıs</w>
ş ü
gen cy</w>
k olay
per for
ol malı</w>
res mi</w>
kil led</w>
as yon</w>
E ar
re k
pre t
D olay
le m</w>
inf lu
go ti
fe et</w>
sac ri
am an</w>
titu de</w>
f en</w>
il ik</w>
Octo ber</w>
ıs ına</w>
çeşit li</w>
de me
Er doğan</w>
En g
sa m</w>
edil miş</w>
s le
gün ah
gaze tec
c k
Amer ic
peygam ber
f otoğ
du e</w>
doğr ul
Gen el</w>
develop ment</w>
do c
cas es</w>
sahi bi</w>
c os
an ts</w>
se yi</w>
T ra
G az
h ours</w>
kesin likle</w>
düzen lenen</w>
yer ek</w>
baz ıları</w>
Ar alık</w>
ti ren</w>
maj or</w>
deter min
gerek li</w>
M I
to ward</w>
ec tive</w>
d ness</w>
lığ a</w>
iler le
em ents</w>
G r
sad ık</w>
c amp
il gin
every one</w>
den k
bek le
olo gy</w>
m izi</w>
J ap
kit ap
Dış işleri</w>
mik tar
May ıs</w>
simp le</w>
Baş kanı</w>
Jan u
sat ın</w>
sor u</w>
mek tir</w>
im ple
k re
gör mek</w>
ç ak
iz le
cour t</w>
say ısı</w>
la un
1 3
mev cut</w>
yön ünde</w>
B iz
z e</w>
ver ir</w>
res i</w>
mom ent</w>
pret ty</w>
bas it</w>
er ken</w>
ad op
J uly</w>
writ ten</w>
spec i
üst ü</w>
yu kar
gra tion</w>
al dığı</w>
resi m
lan ds</w>
liğ in</w>
is tan
dik lerini</w>
yat ır
muş tu</w>
i ther</w>
Sü ley
de gre
F ir
rema in</w>
liğ e</w>
a c</w>
tr ac
righ ts</w>
de m</w>
g ec
hab er</w>
bağ lant
Z agre
ş ah
W ed
kus ur
hız lı</w>
ar ada</w>
Hırv at</w>
v a</w>
son a</w>
lik ler</w>
ze g
re form</w>
de pen
cou ple</w>
&apos; yi</w>
pa in</w>
elec tions</w>
duy g
t ılar</w>
Tim o
g rup
T e
. com</w>
simil ar</w>
baş lan
incre ase</w>
desig n</w>
f ine</w>
ağ a</w>
ik e</w>
di p</w>
E kim</w>
to wards</w>
üm üz</w>
o ve</w>
Dolay ısıyla</w>
ne goti
Her zeg
am ba</w>
Nis an</w>
sol ution</w>
sev g
Janu ary</w>
arac ılığıyla</w>
çev ir
im it
ak l
S aul</w>
ümüz de</w>
h em
fır sat
l ük
beli ev
öl üm</w>
duğ unu</w>
citiz ens</w>
hus band</w>
de b
Y ıl
k ız</w>
et tiler</w>
av ail
A S
ım c
ar ri
lon ger</w>
es senti
pe ti
Herzeg ovina</w>
Haz iran</w>
direc tion</w>
res ol
Afri ka</w>
A n</w>
uy ordu</w>
uy an
in side</w>
de mon
sp or
bah se
im izin</w>
wh ose</w>
out side</w>
di se
kiş ilerin</w>
teme len</w>
lık la</w>
lan mış</w>
l ıca</w>
re ly</w>
di plo
dest ro
Ph il
show s</w>
an ya</w>
Wed nes
ra z
man ız</w>
ci ent</w>
sağ lık</w>
re gu
K ö
O N
önc eki</w>
T V</w>
zar ar</w>
invol ved</w>
buil t</w>
viol ence</w>
k are</w>
Al though</w>
organ is
kal an</w>
gü ç</w>
Wednes day</w>
ç te</w>
düğ ü</w>
m iy
inte gr
Ç arş
se qu
diy en</w>
cri mes</w>
Dan iel</w>
r ent</w>
marri age</w>
200 9</w>
yap ar
a ile</w>
ou san
ec u
Yar at
ş aşır
res ults</w>
bir ini</w>
tiv ity</w>
tri k</w>
n ote</w>
ülke de</w>
s ite</w>
kay ıt
A dam</w>
ş art
veril en</w>
gö rec
ik le</w>
s ap
M ez
my self</w>
ous ness</w>
me li</w>
hen üz</w>
tion ed</w>
P sal
iz le</w>
Y et</w>
ıl ıyor</w>
O K</w>
Al man
B una</w>
pop ulation</w>
os u</w>
ma s</w>
I sa
ti si</w>
col lec
9 0</w>
dis ciples</w>
a mak</w>
moder n</w>
eğ il
atten tion</w>
20 10</w>
al low</w>
C o
ok s</w>
Re ad</w>
gi ves</w>
b ap
K at
v i</w>
conf lic
in du
böl ges
b ran
s ini</w>
enti re</w>
ic ked</w>
ay et
lil ik</w>
ic k</w>
g ece</w>
değil di</w>
ap preci
i di</w>
O cak</w>
cre ated</w>
Tem muz</w>
e er</w>
da ily</w>
ş em
environ ment</w>
ch ief</w>
Na tional</w>
ov a</w>
for th</w>
heav en</w>
accoun t</w>
happ ens</w>
fik ir
ti mi</w>
k amp
lar s</w>
Çarş amba</w>
commun ic
ıs ının</w>
chan ged</w>
te am</w>
lis h
R a
19 8
am ın</w>
Tama m</w>
ri ed</w>
ci ties</w>
ö f
g n
H ep
uy orum</w>
con ditions</w>
Nov ember</w>
u tes</w>
li ons</w>
çalış an</w>
re ve
do or</w>
comp ut
c le</w>
uğ u</w>
ne y</w>
Se e</w>
S ch
ig n</w>
look ed</w>
y üz</w>
ulus al</w>
gre ater</w>
et tim</w>
b on</w>
Th ose</w>
ser ious</w>
num bers</w>
pla use</w>
olur sa</w>
ac hi
ç ı</w>
al one</w>
&apos; yı</w>
announ ced</w>
Q u
ihtiy aç
Mat the
po ints</w>
f er</w>
i er</w>
w ish</w>
et raf
ol a</w>
ex er
bar ış</w>
Macedon ian</w>
hel ped</w>
te xt</w>
um e</w>
j oy
T eş
yet en
3 3</w>
rec ent</w>
A pri
s c
ffic i
ver iyor</w>
ra di
high er</w>
ousan ds</w>
Apri l</w>
topla m</w>
ley se</w>
dem ok
B ri
won der
wi de</w>
mus unuz</w>
sız lık</w>
el ere</w>
Ö y
k ere</w>
recei ve</w>
alar ının</w>
ma m</w>
par ts</w>
ther n</w>
sup por
E ski</w>
ol umlu</w>
teknolo j
stand art
et tiğini</w>
Matthe w</w>
ec tion</w>
be auti
uy orlar</w>
durum u</w>
uy oruz</w>
al low
gel er
uz man
p icture</w>
i o</w>
Üniversi tesi</w>
gru p</w>
si yon
nat ure</w>
düş ük</w>
hükü met</w>
G öz
is hed</w>
ay la</w>
se em
a ver
v üc
te şek
squ are</w>
Kas ım</w>
me m</w>
iler den</w>
a x
K e
Bel ki</w>
var sa</w>
den iz</w>
S ize</w>
aç ıdan</w>
soci ety</w>
iç ine</w>
ür ün
eas y</w>
Tu es
yaz dı</w>
kü r</w>
e tin</w>
abil eceğ
polic y</w>
C .
econom y</w>
cer tain
Tues day</w>
M ü
lü l</w>
t ı
. 000</w>
en e</w>
ınız a</w>
com men
gro w
el im
cri me</w>
pro per
alar a</w>
Amer ik
A K</w>
sig n</w>
ç at
fron t</w>
y ü
an im
ır lar</w>
yar g
lüğ ü</w>
O y
d ile</w>
I I</w>
dığ ım</w>
w ed</w>
üy orlar</w>
An laş
lik leri</w>
gün lük</w>
in ci
hiz me
Ey lül</w>
ref lec
ec h</w>
ölç ü
Sep tem
ta da</w>
ru le</w>
or tal
Septem ber</w>
mus ic</w>
kullan arak</w>
başar ılı</w>
r un
H el
bak alım</w>
for ward</w>
Psal m</w>
A bra
f ak
fer ence</w>
al ıp</w>
treat ment</w>
Pet rus</w>
alis ts</w>
is inde</w>
göster en</w>
ad al
C our
im an
us h</w>
vi ties</w>
baz en</w>
u ş</w>
may an</w>
am ount</w>
ori gin
faz las
ear lier</w>
ven tion</w>
l ül
düşün ün</w>
ev ent</w>
qu al
fol low</w>
bet te</w>
read ing</w>
re search</w>
karş ıla
me l</w>
l iler</w>
hükü met
ad d</w>
For eign</w>
var i
uz ak</w>
son suz
or an</w>
göster di</w>
lin es</w>
ab ove</w>
m oun
j ustice</w>
in stead</w>
etkil i</w>
Başbak anı</w>
mor ning</w>
kar maş
fel low</w>
söz c
bil im</w>
St ate</w>
ey im</w>
Mah ke
me mor
evi dence</w>
lığ ına</w>
ga in</w>
ep ing</w>
ön ceden</w>
Com mission</w>
comple tely</w>
ac k
2 5
S alı</w>
lov ing</w>
hund red</w>
tü m
se a</w>
H ük
On u</w>
pow er
R ad
Bun unla</w>
er a</w>
tain s</w>
m iz</w>
P en
C. E</w>
İ bra
finan cial</w>
hakk ındaki</w>
Diğ er</w>
Afri ca</w>
kon u</w>
grou ps</w>
açık ça</w>
Rep ub
ris k</w>
dolay ı</w>
az alt
avail able</w>
Slov en
Ban k</w>
repor ted</w>
bil iyor</w>
neden i</w>
po or</w>
ter ed</w>
olduğ undan</w>
ibade t
o be
f la
under standing</w>
wan ts</w>
st ood</w>
m ini</w>
begin ning</w>
ör nek
Kr al</w>
sa tis
alar ına</w>
yay ı</w>
m ing</w>
tiv ely</w>
bel li</w>
Bir leş
yaş ındaki</w>
sig nific
ak ıl
na -
luk la</w>
d oub
er iş
standar ds</w>
ile tiş
i te
bur aya</w>
ti z</w>
fi ght</w>
th us</w>
cons ci
cep t</w>
mode l</w>
sil ah
ra tik</w>
c lo
tu al</w>
cri min
vil la
Pro f
c s</w>
S im
Rom a</w>
K uz
c ost</w>
üre sel</w>
l y
H ey</w>
yap ıyor</w>
any one</w>
H o
n i</w>
s at</w>
vo ice</w>
tr ust</w>
lan ması</w>
ht t
4 5</w>
ilgin ç</w>
üy elik</w>
mesa j
geç miş
fin al</w>
stat us</w>
cum hur
E N
Ap plause</w>
g lor
ar an
üy esi</w>
tri ed</w>
Dav ut</w>
sup p
yan ında</w>
par ties</w>
yan dan</w>
represen ta
an cient</w>
simp ly</w>
bu d
Scrip tures</w>
A ust
mis sion
diğ er
kiş isel</w>
pre aching</w>
em o
ma c
f ra
ıla c
mil yon
lar ımız</w>
compan ies</w>
G ö
lear ly</w>
u d</w>
tot al</w>
kur al
grow th</w>
diy erek</w>
G i
an ne
acak lar</w>
Al k
k m</w>
meliy iz</w>
Gü ven
Bos na-
ebil iriz</w>
aş ağ
ac tions</w>
kal dı</w>
con ver
Wh ere</w>
Baş ka</w>
mal ıdır</w>
l is</w>
eğ len
çev re
some times</w>
göre v</w>
lan ıyor</w>
inv esti
to wn</w>
M edi
tem p
do cum
grap h
f i</w>
ş e</w>
acti vities</w>
D ip
ik sel</w>
htt p</w>
S iz</w>
ne ither</w>
F ri
K ah
member ship</w>
m ir</w>
pris on</w>
ask er
hakik at
f all</w>
bir leş
ol masına</w>
C H
tem sil</w>
meet ings</w>
b ö
A ra
h an</w>
c ris
L on
do lar</w>
P ap
üy ordu</w>
kü p</w>
mek tu
eder im</w>
g est</w>
yüre ğ
f oun
üm ü</w>
h ücre
bil im
lığ ının</w>
c ü
Ş ub
v af
say gı</w>
Pri ş
te l</w>
mas ından</w>
inclu de</w>
op ened</w>
diy or
il s</w>
he p</w>
presi dent</w>
ev ol
be den
&apos; ı</w>
rela ted</w>
beauti ful</w>
parç ası</w>
in di
i or</w>
can c
r ate</w>
wis dom</w>
belir til
Pris tina</w>
ade t</w>
par liament</w>
le ader</w>
v az
v al</w>
opportun ity</w>
O ğ
gu y</w>
ef ul
kıs mı</w>
al ist</w>
k ıl
ol maya</w>
I tal
tu m</w>
o mes</w>
AK P</w>
z ev
S en
u dur</w>
s ul
b os
Bosna- Hersek</w>
p ul
li ed</w>
ıyor sunuz</w>
İnsan lar</w>
değer li</w>
E f
Dur ing</w>
S ince</w>
etkil ey
ur ch</w>
in izde</w>
K u
b ay
stu ff</w>
sı rada</w>
partic ular</w>
o ted</w>
wal k</w>
o h</w>
C al
si ght</w>
sek tör
benef it</w>
çocuk lar</w>
st ay</w>
fik ir</w>
F eb
st af
say ı</w>
Feb ru
f ish</w>
baş vur
ph one</w>
li ved</w>
ga tions</w>
stan ces</w>
ad landır
z aten</w>
th ousands</w>
m ül
B a
di tional</w>
Alman ya</w>
G ru
n ak
bilir ler</w>
ü s</w>
ri a</w>
san at
olma dığı</w>
id di
mey ecek</w>
is ine</w>
meas ures</w>
deme çte</w>
z ay
es tern</w>
H DP</w>
b ly</w>
avr o</w>
oğul ları</w>
Th us</w>
Febru ary</w>
ima gine</w>
bulun duğu</w>
is n</w>
i ed</w>
din le
s w
su ç</w>
ra f</w>
ke pt</w>
şey e</w>
ma tic</w>
tiv al</w>
pro gram</w>
gi den</w>
R O
fre edom</w>
aşır ı</w>
p il
Th er
S ur
w icked</w>
s cal
ye bil
w hatever</w>
func tion</w>
diy orum</w>
IM F</w>
te e</w>
dönem de</w>
çif t
sa tion</w>
fi f
üş meler</w>
s ound</w>
bor der</w>
yeter li</w>
yıl da</w>
y u</w>
necess ary</w>
P K
g one</w>
Zagre b</w>
es sion</w>
kendi si</w>
op position</w>
Priş tine</w>
ou ldn</w>
iy as
p azar
kurul uş
Min is
un g</w>
na med</w>
ki ds</w>
gi c</w>
K o
diğ ine</w>
ran ge</w>
eff ect</w>
M ladi
emplo y
Dem ocratic</w>
yıl dır</w>
y o</w>
pray er</w>
ser ving</w>
di v
ag ed</w>
it er
g as</w>
seem s</w>
D eğ
re ach</w>
malar ına</w>
gen iş</w>
la bor
temsil c
ş tur
eful ly</w>
ümüz deki</w>
off er</w>
ecek tir</w>
al u
Kon seyi</w>
Ju da
ev len
dol lars</w>
is tik
S il
ch i
t ö
show ed</w>
offic ial</w>
bin lerce</w>
succ ess
amaç lı</w>
3 4</w>
halk ı</w>
for ces</w>
şü ph
mu hal
A G
S T
qu ick
la ws</w>
inv est
wor ked</w>
anim als</w>
sonsuz a</w>
ı larını</w>
ing ton</w>
corrup tion</w>
Şahit leri</w>
ans ı</w>
sh ort</w>
ma ch
in ize</w>
bul mak</w>
V ar
Hır isti
hav a</w>
göster ir</w>
ex ac
im medi
hes ap
Yun an</w>
kuv vet
F o
le av
fil led</w>
te aching</w>
mi c</w>
hos p
git ti</w>
Ear th</w>
il ir</w>
tain ed</w>
provi ded</w>
il a</w>
ü ş</w>
ple ase</w>
A L
se par
sour ces</w>
b ut
Şub at</w>
pri ce</w>
TE D</w>
T ay
g ın
equ ation</w>
pub lic
ol u</w>
com par
z ir
terr or
gü r</w>
al ing</w>
dağ ıt
bo oks</w>
id dia</w>
anal y
uy du</w>
sık ınt
bu y</w>
yay ım
P A</w>
D NA</w>
topl ul
pres sure</w>
mov ing</w>
ün i
et tik
dı ş</w>
acak sınız</w>
ihtiy aç</w>
an ların</w>
ur s
ev en
bir inci</w>
kend ilerini</w>
Av ust
ol ma</w>
ler imiz</w>
Ger many</w>
cur rent</w>
ye mek</w>
ma tik</w>
et mesi</w>
av oid</w>
0 ,000</w>
ni c</w>
low er</w>
söz ü</w>
rela tions</w>
ous and</w>
foc us</w>
al i</w>
yol unda</w>
physi cal</w>
sa ğ</w>
muh temelen</w>
el en
res ted</w>
mater ial</w>
Bir çok</w>
sa f
ra h
kor un
vi ous</w>
sur vi
red det
gro w</w>
fiy at
fi k</w>
pas s</w>
Bak an
od ak
en joy</w>
G u
cel ls</w>
vi a</w>
righte ous</w>
yol suz
ut an
g a</w>
c o</w>
tan ın
per haps</w>
İbra him</w>
Öy leyse</w>
kendis ine</w>
da ma
ati f</w>
on y</w>
on ya</w>
exer c
Sun day</w>
desi re</w>
yok tu</w>
iden ti
lü t
lar ımızı</w>
ir ken</w>
hay at</w>
Teş ek
con v
A ug
res sed</w>
getir di</w>
cris is</w>
Ar tık</w>
har c
ede bilir</w>
yok tur</w>
te ach</w>
yat ırım</w>
man kind</w>
üzer indeki</w>
hüküme ti</w>
de ep</w>
Rus ya</w>
kar arı</w>
eler inin</w>
şekl inde</w>
ön cel
m iyor
yön tem
men iz</w>
k ula
go al</w>
ec ut
son ucu</w>
gir l</w>
M ir
gen ellikle</w>
top lan
He bre
200 3</w>
tah min</w>
kaç ın
cul tural</w>
pub lished</w>
h uk
cons titu
boy ut
çöz üm</w>
minis tra
m ıyor</w>
gü cü</w>
comput er</w>
o j
ac her</w>
Hıristi yan
p u
kap at
böl ge</w>
To day</w>
PK K</w>
v el</w>
ask eri</w>
Par tisi</w>
i ft</w>
T Y</w>
marri ed</w>
l ıdır</w>
iti bar
T w
vec tor</w>
E ver
düşün c
imple men
cur ren
aver age</w>
ı larının</w>
s it
s er</w>
nok ta</w>
c at
söyle y
n ine</w>
D A</w>
Americ an</w>
qu ality</w>
power ful</w>
Ser b</w>
f an
ship s</w>
hey ec
lis ten
tri al</w>
Aug ust</w>
tiy or</w>
Th urs
düş man
Jos ep
ide as</w>
lo ws</w>
kam u</w>
wonder ful</w>
Al so</w>
quick ly</w>
Mer kez
gider ek</w>
ex ten
elec tri
T abi
k ın
B eni</w>
ha bi
c t</w>
üç üncü</w>
individu als</w>
di ence</w>
b es</w>
u ght</w>
sur pris
re h
dik ten</w>
v es
la z
cir cum
char ac
taş ı
can di
P azar</w>
exac tly</w>
U .
Thurs day</w>
top rak
effor t</w>
ad ığ
yaşad ığ
mut lul
er ing</w>
be l</w>
aş ı</w>
P r
si t</w>
si m
ac ts</w>
th ousand</w>
Egyp t</w>
rec or
po z
S tan
zaman lar</w>
d am
gr ad
Cour t</w>
çalış ma</w>
siz lik</w>
l isi</w>
me miş</w>
T al
bak ış</w>
A th
en em
offer ing</w>
perfor man
olma dan</w>
köt ül
yen il
19 7
gi dip</w>
yok sa</w>
ev ren
düz el
alar da</w>
tra ining</w>
harek et
Sam uel</w>
şem be</w>
da tion</w>
en t
say f
s ch
B C</w>
öğ ü
typ e</w>
D E
jo in</w>
ihtiy acı</w>
organiz ation</w>
R eh
repor ts</w>
pot ential</w>
fiz iksel</w>
M ad
giri ş
consi der
sol u
ough out</w>
İ tal
ç ok
sel s</w>
b on
ölçü de</w>
mak in
im ize</w>
karş ın</w>
S ağ
ter i</w>
D id</w>
ö n</w>
kor uy
es cu</w>
3 7</w>
indepen dence</w>
yas al</w>
tic ally</w>
ou d</w>
is ing</w>
de ep
de ta
Bulgar ian</w>
ım dan</w>
seç im</w>
prin ciples</w>
yap ılacak</w>
Gül üşmeler</w>
tr ol
en ded</w>
b ol
ac qu
Per şembe</w>
ati n</w>
Ja mes</w>
C e
o x
ev o</w>
op s</w>
g isi</w>
yaban cı</w>
consi dered</w>
Juda h</w>
en g
a tional</w>
M ost</w>
ex tre
ıl ır</w>
for med</w>
Kitap ta</w>
se m</w>
h un
f our
ple as
2 ,
yapt ık
happ iness</w>
certain ly</w>
as p
la w
be ha
olog ical</w>
B öl
vaf tiz</w>
prom ise</w>
ay ın</w>
Abra ham</w>
att ack</w>
tel ls</w>
S a
ış ık</w>
tra vel
t om
en ly</w>
W ash
a head</w>
tut e</w>
Arnav ut</w>
on ed</w>
ar rested</w>
ab ri
me de</w>
ri ch</w>
de dim</w>
in tro
an siy
&apos; ten</w>
app ointed</w>
TH E</w>
ber aber</w>
Dev let
3 .
liğ ine</w>
eğ iz</w>
üyor sunuz</w>
im ler</w>
lil iğ
ur rec
se em</w>
bil mek</w>
K il
ort adan</w>
D üş
ağ ır</w>
Hük ü
D is
soru ştur
sou l</w>
be gin</w>
söz ler</w>
pri me</w>
p rec
comple te</w>
kay det
iş ler</w>
ç aba</w>
başla dım</w>
vic es</w>
o y</w>
neigh b
fon k
ye ar
v ote</w>
tür lü</w>
R E
tedav i</w>
oğ l
may acak</w>
Yeruşal im</w>
Ken di
ev il</w>
ar ti
k ın</w>
eceğ iz</w>
gün kü</w>
ziy aret
ner ede</w>
iş aret</w>
o da</w>
ust os</w>
hal inde</w>
ama cı</w>
Do es</w>
bac k
yan s
T ran
olur du</w>
la dığı</w>
we eks</w>
res our
y ur
abil ecek</w>
200 0</w>
et kin
dü ler</w>
kendis ini</w>
at ors</w>
So ci
B e</w>
C E
th an
ter n
al ed</w>
yü cel
istiy or</w>
iz ation</w>
D S</w>
sor umlu</w>
s ka</w>
famil ies</w>
3 00</w>
en ced</w>
mas ıyla</w>
hat h</w>
Wash ington</w>
uni verse</w>
um p
lay ın</w>
len di</w>
us al</w>
on g
göster mek</w>
g old</w>
ek si
Ulus al</w>
cin sel</w>
Ağ ustos</w>
g ur
eth nic</w>
dau ghter</w>
camp a
r u</w>
lis t</w>
et nik</w>
duğ umuz</w>
d ini</w>
la sting</w>
var ious</w>
s cen
ener j
İn san</w>
ı f</w>
om on</w>
feel ings</w>
clas s</w>
k üresel</w>
ý n</w>
On a</w>
H i
lar ındaki</w>
la h
S el
ur ken</w>
P or
O rada</w>
son uç</w>
öğret men
lar ım</w>
bur adaki</w>
bir ine</w>
yıl dı
ol say
mor al</w>
f ast</w>
Fir st</w>
spec ies</w>
pi ece</w>
he ar
accep t</w>
Balkan s</w>
siste mi</w>
al o
Yahu da</w>
ste ps</w>
la m</w>
bas ın</w>
expres sion</w>
com peti
sour ce</w>
C har
con nec
ver ici</w>
pro duce</w>
ir ler</w>
3 6</w>
A no
mad de
il gi</w>
On ların</w>
ıla bilir</w>
ser best</w>
vek tör
g esi</w>
am s</w>
kür ler</w>
g on
yav aş</w>
ol anlar</w>
sek iz</w>
Josep h</w>
tes lim</w>
ecek ler</w>
düz ey
re forms</w>
ad ay
ün üz
interes ted</w>
decis ions</w>
re stor
l d
E k
ic es</w>
on unla</w>
A ş
ther e
spok e</w>
lear ning</w>
üre t
yöne tim
f le
Fran sa</w>
il an</w>
S tu
ar aç
La w</w>
w a
religi on</w>
edi p</w>
ak ş
ol un</w>
inte gration</w>
9 2</w>
cel e
bil iyorum</w>
min utes</w>
ediy orum</w>
ğ e</w>
k eli
ta ught</w>
gen e
con struction</w>
W e
Cumhur iyeti</w>
dru gs</w>
divi ded</w>
Con si
Isa iah</w>
kit ap</w>
ver bs</w>
exp ect</w>
b alan
ou ble</w>
B atı</w>
destek le
ad dition</w>
İ z
om ing</w>
di ş
Ç in</w>
res urrec
in tel
taş ıy
s ığ
bah set
sonuc unda</w>
ed en
Yugos la
iste diğim</w>
Ther efore</w>
tra de</w>
is lav</w>
A le
kay de
fotoğ raf
mam ıza</w>
E t
IC TY</w>
g ame</w>
bec omes</w>
aş ağı</w>
Inter net</w>
uğr aş
tr on
ro ot</w>
bre ak</w>
wat ch</w>
me le
K ap
lov ed</w>
gi bi
ber t</w>
L ev
h our</w>
gün ah</w>
Ken di</w>
takipç ileri</w>
w in</w>
t ör</w>
spe aking</w>
elek trik</w>
el ess</w>
prin cip
gel ip</w>
def a</w>
acc ession</w>
M E
yüre k
wor th</w>
M ary</w>
qu ar
b lu
M ark
olduk larını</w>
fin ally</w>
düşün üyorum</w>
hüküme tin</w>
em er
Ü s
okuy un</w>
di stance</w>
am p</w>
&apos;n de</w>
lan da</w>
beha vi
Tabi i</w>
imz al
So me
Ne ws</w>
her kesin</w>
Kuz ey</w>
Bun dan</w>
ort am
conduc t</w>
Cy pr
ima ge</w>
ban k</w>
İ sp
pas sed</w>
ev ents</w>
R S</w>
hu ge</w>
Yük sek</w>
Ok ay</w>
ga ther
mal i</w>
Süley man</w>
Mez mur</w>
H iz
ed on</w>
U y
K ay
re p
Cypr us</w>
ne fre
mil es</w>
cev ap
um uz
sol ve</w>
böl ün
see ing</w>
düğ ünü</w>
tem iz
re duc
The ir</w>
Hat ta</w>
g ment</w>
ınız ın</w>
streng th</w>
ola ğ
tak ip</w>
ha k</w>
dok un
Yarat ıc
Sol omon</w>
plan et</w>
k er
iy a</w>
Fran ce</w>
has t
en tary</w>
d y
Roman ian</w>
Mak edon</w>
Şahit lerinin</w>
doğ u</w>
ag ue</w>
oc c
bas is</w>
W il
N i
Ö l
suffer ing</w>
kno ws</w>
ir s</w>
giri şim
Komis yonu</w>
k avr
uy um</w>
s ister</w>
Russi a</w>
thr oughout</w>
t ere</w>
respon sibility</w>
t les</w>
olduğ unda</w>
k öy
dav et</w>
b la
att ac
app ly</w>
l in</w>
19 5
üzer inden</w>
h ood</w>
Jer em
1 00
pi on
iste yen</w>
il iyor</w>
continu ed</w>
at ures</w>
conflic t</w>
con ference</w>
um uzu</w>
kapsam ında</w>
tou ris
gün e</w>
coun sel</w>
el ine</w>
yön el
yaz ıl
ta ş</w>
et meyi</w>
be t</w>
anlaş ma</w>
S ah
n on-
h uz
Ano ther</w>
etkil e
I s
taş ın
bir şey</w>
0 s</w>
yol cul
sp end</w>
differ ence</w>
r is</w>
eder ken</w>
dos t
ağ ır
me lerini</w>
c ell</w>
regar ding</w>
kend ine</w>
ö türü</w>
for ever</w>
yer inde</w>
tan ıt
lu lar</w>
dık tan</w>
di l</w>
ük em
sp ent</w>
de pres
Pro verbs</w>
kov ski</w>
c ov
Sar ay
se x
il lu
eur o</w>
ş ark
reas ons</w>
lis ten</w>
dise ase</w>
sh ar
belir li</w>
200 2</w>
sol di
k ok
his tor
etkil en
199 9</w>
mat ters</w>
he y</w>
ama z</w>
M is
tele f
Birleş ik</w>
karmaş ık</w>
g or</w>
eler ine</w>
su per
men tioned</w>
kat k
uy s</w>
ev alu
ah lak
E m
el e
Sou th</w>
estab lished</w>
araştır ma</w>
ser vices</w>
j an
dığ ına</w>
an gel
cl us
Ru h
pur su
Y usu
n ov
hal k</w>
uy gu
ser t</w>
ge ze
vi ously</w>
tur ns</w>
ol um
len diri
tut um
D ra
tal ep</w>
l ose</w>
individu al</w>
M ec
char ge</w>
ıs ınız</w>
ü ler</w>
bak ır</w>
mey in</w>
ad ım
Diy ar
examp les</w>
zam anı</w>
N er
I S
t age</w>
söz lerine</w>
ol masını</w>
le y</w>
gen in</w>
baş ında</w>
maj ority</w>
m ot
let ter</w>
iste di</w>
ge z
ad ministra
l on</w>
Ç ev
regi onal</w>
do w
ch ec
S kop
sh ap
B İ
İb ran
tr uc
ik isi</w>
han d
M S</w>
un uz
ı daki</w>
produc t</w>
h ous
em in
met re
han na</w>
tif y</w>
s we
ra m</w>
me sinden</w>
cap ital</w>
an ima
Sar aj
millet vek
gen iş
dis cip
as ıyla</w>
Je ws</w>
pro ve</w>
d ın</w>
P ic
L ike</w>
Gün ey</w>
öldür ül
ular ly</w>
luğ u</w>
li e</w>
Dün y
t ree</w>
par lamen
ju di
ad ını</w>
la maya</w>
ok e</w>
plan s</w>
m l</w>
bo y</w>
çalış ıyor</w>
Consi der</w>
yak al
d ings</w>
deli ver
200 1</w>
me siyle</w>
açıkla dı</w>
S ek
oun ded</w>
hayat ta</w>
appro ach</w>
C O
u h</w>
liğ inin</w>
l iste
199 5</w>
se ek</w>
böl geler
F er
D ep
rec ently</w>
lay arak</w>
plan t</w>
was n</w>
s is
inter net</w>
ek ledi</w>
bun al</w>
aç ıl
ex am
düzen li</w>
lık lar</w>
grap h</w>
An n
rema ins</w>
Su ch</w>
H um
Eng lish</w>
t le
t ac
respon sible</w>
gro wing</w>
eli tes</w>
devel op</w>
H ad
do laş
el ders</w>
r ü
st ated</w>
sh own</w>
descri bed</w>
add ress</w>
K im
sen ten
mean ing</w>
ma gaz
biri m
Lo ok</w>
e bilirsiniz</w>
multip ly</w>
ığ ın</w>
s cre
yer i</w>
ris e</w>
ger ç
Skop je</w>
me diğini</w>
cou ldn</w>
r at</w>
hizmet ç
Mes el
car ry</w>
j e
it or
Geor ge</w>
ödü l
çak gönül
zor un
v ef
proj ects</w>
g uys</w>
W estern</w>
Tw o</w>
me diği</w>
güç lendir
istan ce</w>
in izin</w>
iletiş im</w>
kâ r</w>
S ci
gel diğini</w>
gi dec
Yu hanna</w>
M üz
19 6
aç tı</w>
l ılık</w>
be yon
b aş</w>
yer leş
tr uly</w>
ağ ını</w>
rele ased</w>
be be
op pos
Ser bs</w>
ov an
elec tion</w>
challen ge</w>
beyon d</w>
t ay
göz lem
önem lidir</w>
görül üyor</w>
ex c
2 4
un lar</w>
ter ci
speci fic</w>
ir i</w>
protec t</w>
en joy
tiz ed</w>
keş f
der iv
coun ter
cle an</w>
çoğ un
len g
j in
bağ lan
mun ic
et miş</w>
en ding</w>
d ying</w>
prov ince</w>
değ eri</w>
ti f</w>
kri z
gün lerde</w>
. ht
tem iz</w>
mis iniz</w>
1 1
kon trol
Sec urity</w>
al ma</w>
Saray bos
ma dığını</w>
Merkez i</w>
H a
şidde t</w>
top lum</w>
ak tar
C ez
ır dı</w>
yük sek
yapt ıkları</w>
ar lar</w>
Saraj evo</w>
ler imizi</w>
iz ce</w>
ediy oruz</w>
wil ling</w>
mas s</w>
hay ır</w>
yaln ız</w>
ayr ı</w>
abil mek</w>
on dan</w>
k ey
ac tivity</w>
Mor e</w>
Biz im</w>
succ ess</w>
son suz</w>
sen d</w>
rac y</w>
prac tice</w>
malar ın</w>
confi dence</w>
sın ıf
A h</w>
yür üy
increas ed</w>
as yonu</w>
allow ed</w>
y ip</w>
yaş ında</w>
usu ally</w>
ov ski</w>
mak tır</w>
f -
dak ika</w>
ar ran
al th</w>
work ers</w>
kar an
doğru dan</w>
İngil tere</w>
ear th
Ever y
E C</w>
baş ta</w>
bab y</w>
agre ed</w>
sa ve</w>
ol ic</w>
U S
yıl ın</w>
on larla</w>
lar daki</w>
gör ür
R adi
proph et</w>
an ları</w>
ac tive</w>
to wer</w>
Amer ica</w>
Üs küp</w>
z a</w>
ol der</w>
edil mesi</w>
r o</w>
impro ve</w>
ed ing</w>
col or</w>
R ight</w>
d ök
örgü t
e ffici
Mil os
en gin
ch ap
UN MI
M as
star ting</w>
iç indeki</w>
happ ening</w>
Ath ens</w>
sig n
Rom an</w>
laun ched</w>
bilgisay ar</w>
şaşır t
Prof .</w>
ev et</w>
H ave</w>
follow ed</w>
en ter</w>
hastal ık
dün yayı</w>
author ity</w>
yıl ı</w>
sağla mak</w>
ol uk</w>
me th
al ır</w>
UNMI K</w>
O b
A tina</w>
essenti ally</w>
ler im</w>
an ointed</w>
bir isi</w>
A gency</w>
19 4
zen gin</w>
valu es</w>
ihtiyac ımız</w>
ot ing</w>
c learly</w>
Sır p
D in
di ye
a j</w>
C ome</w>
tak dir
pra y</w>
kre di</w>
es is</w>
muhal ef
has tan
ediy or
acc ess</w>
Tanr ının</w>
ç iler</w>
r ound</w>
ir se</w>
expla ined</w>
R ab
ted .com</w>
m outh</w>
ler dir</w>
www. ted.com</w>
sen e</w>
immedi ately</w>
feel ing</w>
Baz ıları</w>
Balkan lar</w>
d ul
ük re
Dav ud</w>
sevin ç</w>
alt ın</w>
tü ke
er al</w>
nefre t</w>
ıs ız</w>
R ev
pot ansiy
inan ılmaz</w>
te lev
partic ularly</w>
do w</w>
L u
or ta</w>
A N</w>
As soci
yaşan an</w>
p al
k er</w>
Dav ut
produc tion</w>
influ ence</w>
ge tirec
an ay
Y as
Gen ç
beklen iyor</w>
iz deki</w>
muş tur</w>
.ht ml</w>
yar ış
un ç</w>
bud get</w>
Bor is</w>
ıyor dum</w>
oc cas
dol dur
dok tor
Saraybos na</w>
çat ış
telev iz
w ait</w>
teşek kür</w>
kur ban
v et</w>
k ingdom</w>
zer o</w>
sel l</w>
al maya</w>
Diyar bakır</w>
len miş</w>
laş ma</w>
sh o
serv ant</w>
sec tor</w>
W ill</w>
B ağ
At lan
wh ite</w>
tel ling</w>
gre en</w>
ş ef
öne m</w>
to m</w>
g ül
I I
H I
yol uyla</w>
no ted</w>
ac y</w>
ev ic</w>
righte ousness</w>
d den</w>
etk isi</w>
çocuk ların</w>
or d
K es
Ş öyle</w>
organ ised</w>
rul ing</w>
ken din
iş lem
priv ile
con n
mah k
subj ect</w>
s l
yarar lan
ser gil
year -
görün tü
et a</w>
cho ice</w>
ta bi
cho ose</w>
car ried</w>
te acher</w>
suç la
m ızı</w>
dış ı</w>
dur dur
con clu
comp as
E y</w>
ülk eler</w>
konuş ma</w>
re ds</w>
re ached</w>
anlam da</w>
Ah met</w>
as i
v ent</w>
eceğ ine</w>
develop ed</w>
Isra elites</w>
gör dü</w>
gerek tiği</w>
signific ant</w>
ho ş</w>
W ould</w>
k ill</w>
fir m</w>
et er
sugg es
su sta
for d</w>
de dic
D u
program me</w>
medi cal</w>
meas ure</w>
me ters</w>
chan ce</w>
ad s</w>
K ür
ter k</w>
st ant</w>
pe ac
oc k</w>
he de
halk ın</w>
Bul gar</w>
Par liament</w>
Luk e</w>
G o</w>
dü k</w>
Sırbi stan
D a
kullan ılan</w>
c ru
sor du</w>
fi ce</w>
esti ma
yan ıt
or aya</w>
g la
erk ek
appro pri
Ye ah</w>
ığ a</w>
kr al</w>
g -
bo ğ
met li</w>
Ş im
hum an
en tal</w>
Fo ot
ma mış</w>
un uzu</w>
hayat ını</w>
de man
Cor in
yöne tic
ne arly</w>
e ge
ar ın</w>
sın ır</w>
ey lem
Jo b</w>
ver s</w>
reas on
ra id</w>
m ükem
am ız
B ence</w>
1 st</w>
İk inci</w>
em p
20 11</w>
teş em</w>
sp ired</w>
protec tion</w>
offer ed</w>
man ı</w>
ci ans</w>
a maya</w>
ediy orlar</w>
de k
ted bir
re ality</w>
me ş
me sh
c iler</w>
ra ised</w>
So fi
A ç
sağ layan</w>
diy oruz</w>
çev re</w>
lık ları</w>
harek ete</w>
campa ign</w>
ar eti</w>
qu oted</w>
iler leme</w>
I ra
sur face</w>
kin dness</w>
Bosni an</w>
karş ısında</w>
dık larını</w>
P at
Fri day</w>
ra ise</w>
el iğ
canc er</w>
th ro
negoti ations</w>
Timo thy</w>
mer ak</w>
am in</w>
ma dığı</w>
journ alists</w>
p i</w>
clos er</w>
Güven lik</w>
çer çev
yans ıt
her k
dış arı</w>
al et
ha r</w>
ış lar</w>
tem ple</w>
cro w
teş kil
mil lions</w>
lar gest</w>
Kos tun
ser ies</w>
lüt fen</w>
Gök teki</w>
y ed</w>
teknolo ji</w>
li ce</w>
bec er
s mal
iste k
Kr alı</w>
u ally</w>
gör üyoruz</w>
al acak</w>
Kostun ica</w>
teh dit</w>
kay be
E ş
me dic
Minis try</w>
ön üne</w>
l -
Ch ina</w>
pro p
ca used</w>
yan ına</w>
bağım sız</w>
pla ced</w>
iz m</w>
V al
Sırbistan -
H indi
G ood</w>
İn ter
real ize</w>
expres sed</w>
ru les</w>
ay et</w>
st ry</w>
In stead</w>
pro ce
cev ab
can lı</w>
bak an</w>
al though</w>
so ğ
in her
ev iç</w>
a in</w>
Kosov alı</w>
iler inden</w>
ess or</w>
cor rec
respon se</w>
Cum a</w>
gen elde</w>
ff er</w>
n y</w>
ye ş
düny aya</w>
bap tized</w>
oğ u</w>
har it
den cy</w>
con dition</w>
J ac
sor unu</w>
de le
at titude</w>
re gula
oc racy</w>
me kan
even tually</w>
et men
concer n</w>
In dia</w>
unluğ u</w>
ti al</w>
new sp
ma g
nüf us
ıla bil
syste ms</w>
sağ lar</w>
ler deki</w>
k u</w>
ga z</w>
hi bi
gelen ek
ev ski</w>
başlan gı
olduk ları</w>
ne ye</w>
fi gu
answ ered</w>
C E</w>
sağlay acak</w>
ik ti
g res
bo ard</w>
dan ış
col le
son una</w>
Hay at
ç eve</w>
me ly</w>
al tern
priv ate</w>
op in
ik na</w>
bölge de</w>
ı ç
tığ ımız</w>
şeh ir
Kitap taki</w>
mem iş
iti m</w>
S enin</w>
Bab y
il ed</w>
edec ek
baş a</w>
sacri fice</w>
op ening</w>
Cre dit</w>
Ban kası</w>
yap arak</w>
takipç isi</w>
bec oming</w>
sa ç
P le
tan r
duk ları</w>
Luk a</w>
lead ing</w>
getir mek</w>
e dic
b all</w>
a i</w>
süre n</w>
p ap
oy un</w>
olağ an
ing ing</w>
düşün üyor</w>
de p
as es</w>
ıs al</w>
spe ech</w>
kon um
endi ş
Yusu f</w>
veril di</w>
im leri</w>
eler de</w>
tarih i</w>
gh ty</w>
düny adaki</w>
abi l</w>
İ N
gör düm</w>
bas ic</w>
ye me
el eştir
dr ink</w>
7 5</w>
olum suz</w>
st ati
yetkil iler</w>
wh er
düşün ür
ıyor sun</w>
Ö yle</w>
as king</w>
merkez i</w>
m ü</w>
in stance</w>
f u
ç ö
resour ces</w>
or anı</w>
contri bu
Ab out</w>
tan ış
mul ti
el inde</w>
bab a</w>
sus p
la u
invest ment</w>
gen ce</w>
Serbi a-
Öğ ren
ch em
Tay yip</w>
tü ğ
gil i</w>
Bakan lığı</w>
yetiş tir
minis ters</w>
kal ab
th ough
kom ş
D es
ri d</w>
On ları</w>
oc cur
heav enly</w>
ac a</w>
a ded</w>
T ri
pros ecut
ley in</w>
Li fe</w>
li t</w>
V i
in ti
3 ,
w ake</w>
ne y
g ot
d ınız</w>
olduğ umuz</w>
mon y</w>
glor y</w>
ortal ama</w>
ma te
kon om
baş lıca</w>
amaz ing</w>
p sy
biç imde</w>
geç ti</w>
k aları</w>
discus s</w>
T ah
semb ly</w>
ad ına</w>
mar k</w>
inde ed</w>
eceğ imiz</w>
ver ecek</w>
sür ü</w>
mid dle</w>
Rec ep</w>
yap ma</w>
trans la
tr act</w>
origin al</w>
p ped</w>
mis in</w>
ak s</w>
kaynak lar</w>
it ation</w>
dik k
E konom
Sırbistan- Karadağ</w>
achi ev
acc ur
gi es</w>
Go og
4 00</w>
3 8</w>
ri m
di re
ri m</w>
rec ord</w>
an et</w>
yaptığ ımız</w>
p un
döne m</w>
circum stances</w>
Hi gh</w>
ük le
yukar ı</w>
söy ler</w>
sağla dı</w>
mem ize</w>
dis h</w>
deriv ative</w>
writ ing</w>
direc t</w>
A sh
show ing</w>
kitab ı</w>
g un
üzer i</w>
tr a</w>
du n</w>
at mos
ihti yar
la b
göz den</w>
Ital y</w>
mus un</w>
Yar dım
Ger çek</w>
u f
gü v
birbir ine</w>
Sofi a</w>
b ence</w>
stu dent</w>
set s</w>
l ılığ
an e</w>
ul a</w>
re turned</w>
in j
çöz üm
z er</w>
istiy oruz</w>
f un</w>
B at
produc ts</w>
bire y
yaş ama</w>
les h</w>
edil iyor</w>
determin ed</w>
A P
düşün düğ
cen ter</w>
s ha
bas e</w>
r ab
prepar ed</w>
kadın lar</w>
concer ning</w>
cal ls</w>
az ından</w>
resim ler</w>
A u
ti p</w>
rap or</w>
yür üt
re pe
k ı
geç tiğimiz</w>
du var
t ol
se ek
low ing</w>
leş me</w>
challen ges</w>
teme l
interes ts</w>
bre ad</w>
A li</w>
tis h</w>
r ad
il ity</w>
geçer li</w>
villa ge</w>
mo tiv
f ill</w>
expla in</w>
ci vil
representa tives</w>
Y ok
yaş lı</w>
ol anı</w>
görün üyor</w>
dow n
b ute</w>
Mıs ır</w>
she ep</w>
katıl dı</w>
güz el
Associ ation</w>
yüzyıl da</w>
c over</w>
ob li
le ar</w>
D ar
lar ınızı</w>
f lesh</w>
bas kı</w>
sp read</w>
iz ing</w>
inclu ded</w>
bo x</w>
Bir liği</w>
pro pos
kend ilerine</w>
comple x</w>
S eni</w>
ou se
d ance</w>
ayr ınt
Serbia- Montenegro</w>
li ber
görev i</w>
Y oung</w>
Y eş
Büy ük
regu lar</w>
in spired</w>
day alı</w>
M eh
y um</w>
leng th</w>
fal se</w>
c ement</w>
N at
ın tı</w>
yön ündeki</w>
ağ ın</w>
bas ically</w>
b lack</w>
B BC</w>
or tak
every body</w>
bo ş</w>
te sel
sorun ları</w>
V a
l ılar</w>
kullan ım
durum a</w>
bir th</w>
zaman larda</w>
f ayd
Reh n</w>
In de
p ath</w>
bo dies</w>
ar my</w>
al anı</w>
kül tür
F at
sı cak</w>
con sequ
ur ged</w>
mem nun</w>
Tadi ç</w>
c is
Ger man</w>
visi ble</w>
s titu
C hi
ate ş
T ir
Or gan
iyil eştir
hel ping</w>
ci es</w>
W ar</w>
S ana</w>
neigh bor
milyon larca</w>
proph ec
lan d
ler indeki</w>
K ıs
F ren
mad di</w>
F eder
ul du</w>
ağ aç
al çakgönül
te or
O N</w>
gi ft</w>
B eh
s tic
değ in
kendi mi</w>
jo int</w>
M ut
s che
fav or
M ol
com bin
S ab
insan larla</w>
O li
K ız
K FOR</w>
scal e</w>
stru gg
iyil eş
gir ls</w>
us unu</w>
olma z</w>
ag er</w>
An a</w>
yay gın</w>
so f
oy unc
hel ps</w>
zev k</w>
ok ul</w>
seç en
sab ah</w>
gr and
bi yol
at a</w>
Se ç
B ay
yıldı z
wor ship
p ren
p aper</w>
o i
muh teşem</w>
run ning</w>
Y üz
h it</w>
al ır
Hindi stan</w>
real ized</w>
o b</w>
kin ds</w>
gi de
e g
c ast</w>
answ ers</w>
an t
tra vel</w>
l ılık
P re
ön der
mü dah
ön e</w>
success ful</w>
sti tute</w>
de diler</w>
T ak
Pic tures</w>
C ri
ön ümüzdeki</w>
te z
me c
is ting</w>
gün de</w>
wor ld
organ ize</w>
degre es</w>
al a</w>
İç in</w>
len mesi</w>
A il
w ouldn</w>
appropri ate</w>
Goog le</w>
F ac
wit ness</w>
c ks</w>
proper ty</w>
ni ce</w>
Ch il
yak ında</w>
g ü</w>
e diye</w>
commit ted</w>
Ac ts</w>
Ç eşit
we b</w>
pri est</w>
kiş iyi</w>
head s</w>
sion al</w>
y mp
eff ective</w>
e um</w>
tep ki</w>
indepen dent</w>
direc tor</w>
E s
ref u
re tary</w>
h üc
ec ting</w>
abilir ler</w>
Kitab a</w>
Cy pri
pa id</w>
odak lan
yar ar</w>
söyle mek</w>
k iler</w>
in vi
mal ze
imp act</w>
hund reds</w>
Cre ator</w>
os p
im s</w>
im den</w>
ü me</w>
ob ser
müz ik</w>
W al
kuz ey
B 92</w>
red de
bar ış
y es</w>
alın an</w>
sk in</w>
l um
sit ting</w>
pet rol</w>
na tion
et tik</w>
Bar ış</w>
yer leştir
anla ma</w>
ach es</w>
Ar aştır
n alı</w>
ar ay
ok ing</w>
dan ger
ı lardan</w>
v ade
sec on
n de</w>
hatır lat
te dly</w>
en gel</w>
benef its</w>
şeh r
olo jik</w>
lic ation</w>
Mahke mesi</w>
öğren mek</w>
stor ies</w>
sle ep</w>
prac tic
peygam ber</w>
dü n</w>
katıl ım</w>
il ah
a b</w>
H A
te t
e ar</w>
de l
K üç
distri ct</w>
ate st</w>
yaş ınday
v ely</w>
m ic
t am
re commen
kon fer
ver dim</w>
ver diler</w>
la p
j en</w>
h ouse
ey le</w>
denk lem
Kral lık</w>
say g
soldi ers</w>
eceğ iniz</w>
yeryüz ünde</w>
ita at</w>
hu a</w>
anima l</w>
ac ade
I sla
yas ak
yol a</w>
n uc
n am
mak am
desp ite</w>
M em
li m
düş ür
doub t</w>
Wat ch
T I
requ ired</w>
ne l</w>
kar ak
iy at
ar alarında</w>
ag ing</w>
Geç en</w>
part ment</w>
kov iç</w>
importan ce</w>
H iç</w>
bab ası</w>
ver in</w>
us unda</w>
main tain</w>
kayn ağı</w>
E ge
ph oto
çer çeve</w>
k id
exper ts</w>
disc overed</w>
appe ar</w>
Di rec
net work</w>
kork unç</w>
bi tir
K ül
se y</w>
ar rest</w>
avr oluk</w>
yak alan
tri bunal</w>
karşı laştır
bilir sin</w>
Doğ ru</w>
no tes</w>
ayr ı
we b
ü le
es inden</w>
aff ect</w>
acak sın</w>
Br us
çocuk ları</w>
kay b
ab er
Fren ch</w>
zen gin
man tık
gö ren</w>
bak ar
ac le</w>
1 50</w>
yaşad ığı</w>
mam ızı</w>
üy eleri</w>
dem and</w>
Mıs ır
w ood</w>
pres ence</w>
intro duc
en se</w>
Par lamen
w all</w>
kayn ak</w>
alış kan
al ılar</w>
I S</w>
re view</w>
fi gh
L E</w>
ow er</w>
al ık
Jac ob</w>
liam entary</w>
ler ken</w>
cap ac
J on
yet k
st age</w>
pa in
El bette</w>
Â dem</w>
Corin th
yor um
mes inde</w>
büt ün
B .
fik r
C ev
declar ed</w>
arri ved</w>
ad ding</w>
mu c
exper im
dre w</w>
mükem mel</w>
le tin</w>
inv es
f abri
M r.</w>
fe la
ch urch</w>
be ar</w>
W ith
es iyle</w>
accep ted</w>
O S
str ate</w>
s inin</w>
incre di
fail ed</w>
yapt ım</w>
tü sü</w>
nokt ası</w>
mol ek
kah alar</w>
gi diyor</w>
f ell</w>
Son r
S of
git mek</w>
bölges el</w>
P s</w>
Cen tral</w>
zor luk
re mark
r or</w>
e over</w>
ac comp
stre et</w>
me lidir</w>
görü len</w>
ecek leri</w>
P on
I r
yön te
fo ot
al ive</w>
R ic
s is</w>
par ent</w>
fil m
ade s</w>
6 5</w>
eğ it
K er
g ent</w>
St ill</w>
Çeşit li</w>
yer lerde</w>
p ages</w>
h it
c ros
al ition</w>
zih n
yoğ un</w>
as t
pati ent</w>
nor th</w>
g ate</w>
yar dı
stu dies</w>
se x</w>
ob s</w>
c ut
E ph
tiri r</w>
pla s
af raid</w>
Söz ü</w>
st ability</w>
indu stry</w>
exerc ise</w>
çap ında</w>
yöne tim</w>
x ed</w>
pre vent</w>
ha ven</w>
G overn
ye m</w>
tes ine</w>
oy u</w>
incel ey
ar ies</w>
tis m</w>
aw are</w>
an ger</w>
Tadi c</w>
T ake</w>
ay da</w>
or e</w>
inc isi</w>
su s</w>
put ting</w>
kusur suz</w>
e a</w>
Ken dis
mer ha
lay acak</w>
az i</w>
yiy ecek</w>
Pe ace</w>
O s
karşı ya</w>
diğ in</w>
de mektir</w>
c au
Watch tower</w>
de l</w>
g ger</w>
ecek siniz</w>
bilin en</w>
şey lerin</w>
şeh ir</w>
vaz geç
tec rü
en ant</w>
b ing</w>
R ap
nor thern</w>
S ad
Doğ u</w>
Al lah</w>
Ü ç</w>
M it
ım la</w>
yok sul
tre es</w>
pre dic
le gis
kayde dil
blu e</w>
am an
Yahu di</w>
I v
s li
sey ah
malar a</w>
ha ir</w>
gün eş</w>
anlaş maz
sh alt</w>
san c
i des</w>
ec h
ayrı cal
lar sa</w>
içer en</w>
katk ıda</w>
iliş ki</w>
cre ation</w>
we ap
promis ed</w>
gon na</w>
Br ük
I rak</w>
ıs ın</w>
İtal ya</w>
olsay dı</w>
Corinth ians</w>
Ac aba</w>
0 ,
söyle ye
derec ede</w>
P har
Bri tish</w>
A dal
tes inde</w>
inclu des</w>
al alım</w>
R ather</w>
İş aya</w>
provi des</w>
mov ement</w>
fa ir</w>
düşün düm</w>
İ h
me lerine</w>
li mi
P ek
tr u
is ation</w>
cen tral</w>
y el
comfor t</w>
Z oran</w>
tabi i</w>
follow ers</w>
wal king</w>
tiy le</w>
magaz ine</w>
il iğ
gre atest</w>
experi enced</w>
EU LE
E ner
ş ans
ley ici</w>
kil is
der in
L ib
yap acak</w>
qu i
ni met
gelecek te</w>
ar lı</w>
v ation</w>
stati s
demok ras
Bun ların</w>
3 9</w>
şey den</w>
ey doğu</w>
cli mate</w>
P o
Nik ola</w>
E ast</w>
Brus sels</w>
Be fore</w>
re kab
hosp ital</w>
bil diri
ar aba</w>
C ul
Brük sel</w>
v ey</w>
sp ort</w>
fark ında</w>
desig ned</w>
Bos nalı</w>
tiğ inde</w>
qual ities</w>
lay ıp</w>
c ula
uc u
yum uş
ter cü
ekonom i</w>
EULE X</w>
terci h</w>
söyle diği</w>
el em
ben im
Wh ich</w>
bek liy
On lara</w>
Amerik an</w>
yap mayı</w>
bu dur</w>
alan ında</w>
sel f-
in da</w>
cri tic
app o
ag ree</w>
tic aret</w>
olma m
ig nor
ab les</w>
.... ....
though ts</w>
koru mak</w>
jud gment</w>
E very</w>
win d</w>
lar ımı</w>
e mez</w>
b at</w>
Baz en</w>
s ings</w>
E con
yap ar</w>
olağan üstü</w>
diy elim</w>
believ ed</w>
&apos;n da</w>
&apos; ne</w>
vis ions</w>
&apos; u</w>
p kı</w>
iş in</w>
ben imle</w>
T K</w>
RAB be</w>
A I
kov ic</w>
ex tra
doc tor</w>
di an</w>
cap e</w>
bak tığ
Par is</w>
some body</w>
p iyas
oy un
Karad z
öl dü</w>
teach ers</w>
ag en
re g
hede f</w>
hal ka</w>
ar dı</w>
ti sa
employ ment</w>
dığ ınız</w>
Al t
ras t
ma r</w>
huz ur
fa thers</w>
S r
Ple ase</w>
ses sion</w>
hep imiz</w>
exp lor
a gement</w>
Econ om
yıl lar</w>
gördüğ ünüz</w>
f os
tisa ari</w>
ri an</w>
h il
4 4</w>
ç eşit</w>
art ış</w>
4 2</w>
0 -
ülk eye</w>
yap ma
stra tion</w>
li f</w>
distri bu
başkalar ına</w>
Ah tisaari</w>
ro bo
pros p
intel li
Han gi</w>
z af
struc ture</w>
adi se</w>
&apos; li</w>
ılar ak</w>
yapıl mış</w>
ta tions</w>
not u</w>
kilo metre</w>
b ür
ak lar</w>
May be</w>
le si</w>
iler de</w>
hakk ı</w>
H iç
Gre at</w>
ülkeler de</w>
üğ ü</w>
ver me</w>
me ant</w>
acağ ına</w>
H un
H a</w>
Ale x
4 .
mit ted</w>
concer ned</w>
a me
Rev e
reh ber
re min
m on</w>
yer ini</w>
tiğ im</w>
tem por
for get</w>
B ek
chan ging</w>
biri yle</w>
at or
a id</w>
ol muş</w>
ol mayı</w>
Rom ans</w>
var say
vak it</w>
san ki</w>
n ic
fac es</w>
Sat ur
Mil let
örne ğin</w>
z ek
wa iting</w>
m iyoruz</w>
I stanbul</w>
li ance</w>
iç i</w>
direc tly</w>
S C</w>
p ek
bey az</w>
appe ared</w>
ç ift</w>
tö ren
imz alan
divi de</w>
n ar
en lerin</w>
alis m</w>
makal ede</w>
i on
gr an
gel ir
edic i</w>
ta j
four th</w>
e mek
r üz
istiy an</w>
Ç alış
v in</w>
ordin ary</w>
num er
dığ ından</w>
t ent</w>
o me
n one</w>
ever lasting</w>
Gaz e
promis es</w>
kıs ıt
Teşek kürler</w>
Ol ymp
Hır istiyan</w>
yap arken</w>
limi ted</w>
im ini</w>
sürec i</w>
n as
&apos; ün</w>
İnter net</w>
ülkeler in</w>
yarar lı</w>
sy n
lar ımızın</w>
kad ının</w>
Mar k</w>
l ots</w>
m r
ler s</w>
M ur
tem per
over ty</w>
im pres
O p
J ustice</w>
si x
is es</w>
for tun
ek sik
Y al
R i
M i
is ted</w>
adam ı</w>
tu z
expla ins</w>
as s</w>
iş ini</w>
gu ess</w>
Var ious</w>
E ve</w>
scho ols</w>
ne m
i res</w>
bur g</w>
El çi</w>
Ben zer</w>
so h
med ya</w>
ış tır
kazan dı</w>
sav c
mach ine</w>
mi ghty</w>
kiş ilere</w>
göre bilirsiniz</w>
Yak laş
H is
H en
5 5</w>
tur ning</w>
t led</w>
ediy ordu</w>
iş aret
an an</w>
Y ol
S to
on lardan</w>
t ler</w>
st one</w>
ru h</w>
proble m
ces aret
ac ted</w>
spe ed</w>
c ot
abil eceği</w>
won der</w>
he aring</w>
giz li</w>
dür ü</w>
S pe
F a
D ay
si vil</w>
im a</w>
P an
On ly</w>
bal ık
Mat ta</w>
ır sa</w>
is land</w>
hear ts</w>
ülk eleri</w>
z ul
yar gı</w>
vur gula
seek ing</w>
din sel</w>
b lin
adam ın</w>
B es
in habi
as su
ör ü</w>
tarih li</w>
scienti sts</w>
Wat ch</w>
K im</w>
D ai
vi ola
o dy</w>
ha el</w>
st op
kor uma</w>
iste diği</w>
düşün mek</w>
bot tom</w>
ad ışı</w>
öğ üt
sh ort
sa fe</w>
pro ved</w>
na mes</w>
n un
diğ inden</w>
alan dır
en a</w>
M id
L ine</w>
tain ing</w>
bah ç
T el
Ira q</w>
20 12</w>
ev de</w>
degre e</w>
b ar</w>
O ver</w>
und am
s -
atten d</w>
C A</w>
te st
r ying</w>
de mişti</w>
d -
Dev let</w>
üy eliğ
ess ed</w>
ar da</w>
Son uç</w>
af ter
kır ık
deci de</w>
taraf ı</w>
sağ lıklı</w>
resp ond</w>
ra y</w>
kom ut
issu ed</w>
fre qu
at u
sis ters</w>
kendi mizi</w>
in struc
hız la</w>
N ic
6 00</w>
k eti</w>
dem ocratic</w>
T ru
süre ce</w>
pri ests</w>
behavi or</w>
bab alar</w>
kiş iye</w>
gör üyor</w>
20 16</w>
yar alan
tec ek</w>
sec ret</w>
pop ular</w>
politi cs</w>
Z aman</w>
T om
ımız dan</w>
ver i</w>
plan ts</w>
le mi</w>
lar ınız</w>
fes tival</w>
bil eş
attac ks</w>
B re
yeter ince</w>
sacri fic
n os
m ary</w>
gerçekleş ti</w>
et ing</w>
K ol
kısm ını</w>
develop ing</w>
deb t</w>
d omin
cumhur başkan
bir den</w>
bab am</w>
an x
Y öne
geze gen
par ti</w>
ann ual</w>
visi ted</w>
rah at</w>
par al
k ings</w>
eğ in</w>
clos ed</w>
presen ted</w>
fru it</w>
en te
c oc
Russi an</w>
yön de</w>
konus undaki</w>
kan un
hous es</w>
fac tor</w>
ad ay</w>
y ada</w>
we ight</w>
re m
ak ade
Tir ana</w>
Al lah
ven ess</w>
ta x</w>
see med</w>
cont act</w>
20 15</w>
çık ar</w>
ç iç
ol muştu</w>
curren tly</w>
B abil</w>
A S</w>
&apos; teki</w>
s cor
g ol
iyor sunuz</w>
i ously</w>
av ro
al g
H all</w>
ci var
LE R</w>
tesel li</w>
langu ages</w>
D ok
war ned</w>
tığ ım</w>
spok en</w>
isten ce</w>
ü cü</w>
sex ual</w>
es iz</w>
su l</w>
me lerin</w>
yeş il</w>
ra in</w>
produc ed</w>
kat ı</w>
gis ini</w>
gg est</w>
bul uş
ad vice</w>
laz ım</w>
kaç ır
el op
Repub lic</w>
si a</w>
ban k
ı larına</w>
on line</w>
gu ard</w>
P al
D esp
su m</w>
got ten</w>
char ges</w>
SA Y
K am
zay ıf
tem pt</w>
supp ly</w>
play ing</w>
p iş
heav ens</w>
world wide</w>
kay g
destro yed</w>
gener ation</w>
olas ılık
K ul
us ers</w>
tek rar
munic ip
hük üm</w>
gü ven</w>
discus sed</w>
E R</w>
düz ey</w>
ıyor lardı</w>
w o
los s</w>
dis as
olmay acak</w>
bun unla</w>
anla mak</w>
itibar en</w>
insan ı</w>
gr y</w>
d öv
U. S
Reve lation</w>
Kah kahalar</w>
par ag
lar ger</w>
U R
Mor eover</w>
d ra</w>
D üz
A j
sibil ities</w>
requ ire
recor ded</w>
proj e</w>
bi ggest</w>
T iran</w>
La hey</w>
sor ry</w>
ne yi</w>
mal e</w>
iti f</w>
h in</w>
yön lendir
streng th
staf f</w>
sa bit</w>
ler inizi</w>
is mi</w>
hi c</w>
Yardım cısı</w>
L is
A z
ris k
candi date</w>
be ş
İ ş</w>
n az
düşün ce</w>
Bir kaç</w>
yay ın</w>
por ts</w>
kent inde</w>
Kral lığı</w>
Desp ite</w>
savun ma</w>
miş tim</w>
konuş mak</w>
em ya</w>
co alition</w>
ag ency</w>
Her kes</w>
takdir de</w>
mem izi</w>
invi ted</w>
gel diğinde</w>
bilir di</w>
M an</w>
du m
Kur ulu</w>
con clus
br inging</w>
yap ı</w>
yak ından</w>
ren k
con stant</w>
or g</w>
bilim sel</w>
plan e</w>
halk ının</w>
ge m
duğ um</w>
ark a</w>
al arak</w>
v eh
tal ked</w>
capac ity</w>
w ine</w>
un it</w>
lev els</w>
continu es</w>
Yah ud
Gün eydoğu</w>
yas a</w>
ish ing</w>
Inde ed</w>
liter ally</w>
dikk ate</w>
dak ik
cri tical</w>
al dım</w>
v ital</w>
neg atif</w>
ko alis
göster diği</w>
es er
İnsan ların</w>
ülke deki</w>
u es</w>
soru lar</w>
pic k</w>
par ça</w>
Y an
ver gi</w>
estab lish
ec es</w>
Meh met</w>
M el
yıl dan</w>
j obs</w>
eğiti m
bas k
İ sla
sah te</w>
diz i</w>
biliyor sunuz</w>
V oj
Bil im</w>
um ut
sorun lar</w>
p are</w>
malar ının</w>
ler imi</w>
P op
&apos;n a</w>
scienti fic</w>
re jo
is im</w>
ge ç</w>
atten ded</w>
sin s</w>
ol dum</w>
liğ inde</w>
kil ls</w>
be hold</w>
resurrec tion</w>
ma il</w>
h ing</w>
der s
cust om
öğrenc i</w>
sağla m</w>
ok yan
fun ds</w>
encoura ge</w>
dol ar
d om
appro ved</w>
adi l</w>
O L
Ne w
çalış mak</w>
nite lik
anlat ıyor</w>
z am</w>
tehlik eli</w>
regu lar
for ced</w>
ebil ecek</w>
adop ted</w>
adam ları</w>
üm it</w>
yapıl ması</w>
D imit
Bu char
düşün üyor
bran ch</w>
bağım sız
göz altına</w>
Y o
Kar ş
F ol
C ath
ne m</w>
c ei
um ut</w>
politi cians</w>
ok si
am ız</w>
HI V</w>
E duc
yıl larda</w>
pres er
op les</w>
com pla
il iği</w>
res ul
n u</w>
f undam
P ub
şey lerden</w>
uy umlu</w>
so l</w>
requ est</w>
mış tım</w>
enem ies</w>
comman ded</w>
büt ç
administra tion</w>
yük üm
newsp aper</w>
in k
um ent</w>
ou l
Soci ety</w>
Ce ma
An ne</w>
fik ri</w>
b le
iş it
buy ru
baş lıklı</w>
ur a</w>
söz lerini</w>
hep sini</w>
hay van</w>
ox y
me work</w>
me chan
konuş tu</w>
ken ti</w>
ağ ına</w>
Buchar est</w>
year- old</w>
investi gation</w>
Bas escu</w>
govern ments</w>
cre dit</w>
S in
İ m
ter ör</w>
söz ünü</w>
dav a</w>
dar k</w>
M üs
tw o-
sp ring</w>
si ck</w>
belir le
Mic hael</w>
Gen esis</w>
wor ry</w>
ph il
oper asyon
kullan ımı</w>
en f
ad ığı</w>
yaptığ ım</w>
pe ş
kö tü
tığ ında</w>
doğ ur
Pol iti
P lan
H ague</w>
CH P</w>
teşkil at
cal ling</w>
av uk
ö ð
en ta
bor ç
D PA</w>
princip le</w>
dok uz</w>
can landır
c ope</w>
K oc
say ede</w>
az ın
ş ar
pre vious</w>
ima gin
i tely</w>
go als</w>
di men
bulun ur</w>
Jerem iah</w>
ter y</w>
sığ ın
olas ı</w>
es k
ecek lerini</w>
cov enant</w>
tar ım</w>
spiritu ally</w>
se as
p overty</w>
On ce</w>
D İ
Avust ur
prac tical</w>
karar lı</w>
baş larında</w>
ti ms</w>
regar d</w>
gre w</w>
E C
Dev elop
C am
ti fied</w>
son u</w>
s word</w>
mis t</w>
gather ed</w>
equ ip
col um
at ory</w>
abil eceğini</w>
Yugos lav</w>
S cho
pres ents</w>
ol ik</w>
deli ver</w>
ac ting</w>
J ovan
th ank</w>
tain ment</w>
sla ve</w>
me l
anla mı</w>
Dün yanın</w>
ul uyor</w>
tire bil
streng then</w>
da ş</w>
c ra
bel ow</w>
kö k
de aling</w>
at om
suç ları</w>
no tice</w>
mey eceğini</w>
e e</w>
Y en
ı larla</w>
y oun
dal g
kullan mak</w>
ak ç
Kar deş
ş i
ihti mal
Un der</w>
uyan dır
san dal
f an</w>
chi tec
ay dı</w>
Dev il</w>
söz lerle</w>
se ed</w>
alan da</w>
Aust ral
sı f
graph y</w>
ar ily</w>
tra in</w>
inan ç
gö l
ga mes</w>
er y</w>
de struction</w>
en dur
par liamentary</w>
me me</w>
in ation</w>
ex ist</w>
as tern</w>
akş am</w>
Mer yem</w>
M ember</w>
ülke den</w>
Ü ç
tar af</w>
siste m</w>
Fil m</w>
Baby lon</w>
x es</w>
kur ban</w>
den ly</w>
ad ır
San ader</w>
Bur adaki</w>
takipç ilerinin</w>
sad ak
gel eceğ
fır sat</w>
K İ
sağ lan
lider i</w>
id ar
güven li</w>
Beh old</w>
B ükre
4 8</w>
on to</w>
ima ges</w>
Adal et</w>
vol un
ph ere</w>
mar uz</w>
igh ts</w>
d ged</w>
başkalar ının</w>
as ından</w>
konuş mada</w>
yan ıt</w>
wat ers</w>
tek nik</w>
sum mer</w>
duy duğu</w>
şey lere</w>
ro bot
m ıy
W el
ü ste
Demok rat</w>
İsp anya</w>
leav ing</w>
N eh
F e
ık lık</w>
lin ed</w>
dem ocracy</w>
rele ase</w>
rec ek</w>
per sec
has ta</w>
gi re
con struc
bun lardan</w>
İsrail oğul
tab i</w>
dü z</w>
ağ z
ın d
kâ hin
hak ları</w>
T am</w>
B ize</w>
Ab dul
ıl dığı</w>
kas ab
apos tles</w>
S re
L üt
Hükü met</w>
Hebre w</w>
was te</w>
s ıc
le ts</w>
baş ı</w>
bat tle</w>
Kül tür</w>
tan esi</w>
st ran
I m
Geor gi
B ran
vide oda</w>
sağ lıyor</w>
ra tes</w>
i med</w>
eas ily</w>
du g
ac tual</w>
An ay
f em
elç isi</w>
communic ation</w>
Ül ke</w>
ruh u</w>
pi eces</w>
ben den</w>
abil irim</w>
ev ening</w>
en sive</w>
cre ating</w>
S öz</w>
Oy sa</w>
indu stri
hon or</w>
en sure</w>
da ğ</w>
H aber</w>
yeten ek
sonuç lar</w>
p us
et ki</w>
tak ım</w>
jo ined</w>
hayat a</w>
sor unun</w>
ef s</w>
du yar
do mes
E M
ver meye</w>
ten d</w>
mem nun
eli ği</w>
2 7
veh ic
tri angle</w>
nok tada</w>
bi o
Son unda</w>
ph as
div ine</w>
değil im</w>
br ings</w>
öl ü</w>
tık ları</w>
stri c
bir ds</w>
Sof ya</w>
Re ally</w>
yaz ar
ola bilirsiniz</w>
ligh ts</w>
boy u</w>
sil ver</w>
psy ch
G ol
z anl
yaptığ ını</w>
pat tern</w>
p ak
in nov
deliver ed</w>
yol unu</w>
me dim</w>
tak dir</w>
poz itif</w>
me cl
göz ük
dış ar
commun ities</w>
Se a</w>
O ff
uni que</w>
se m
r ı</w>
li mit</w>
ke eping</w>
ha i</w>
ass istance</w>
anti -
yür ür
ter ri
comm and</w>
Bükre ş</w>
hük üm
göre bil
con ven
S pain</w>
sür dü</w>
bi d</w>
uğ un</w>
strate gy</w>
ş e
il l
gar a</w>
danger ous</w>
6 .
ý m</w>
ün lü</w>
dönüş tür
di ren
Mladi ç</w>
H O
tre at</w>
si yon</w>
sevin ç
increas ing</w>
geç iri
E ach</w>
yöne timi</w>
tr ouble</w>
stra ight</w>
it able</w>
we ak
op h
F ur
Cen tre</w>
ç ök
spor ts</w>
s esi</w>
par çal
or man
getir il
Had i</w>
çoğun lukla</w>
y outh</w>
tutuk lan
kadın ların</w>
dri ve</w>
consequ ences</w>
şaşırt ıcı</w>
compar ed</w>
at lar</w>
Mladi c</w>
2 -
çık ıyor</w>
di ren</w>
P S</w>
tion ally</w>
pris on
duyg usal</w>
ate ş</w>
Y eh
ş ur
sonuç ları</w>
os en</w>
me lek
hakikat i</w>
gör üyorsunuz</w>
düşün elim</w>
at i</w>
Ra b</w>
Bir az</w>
B ay</w>
z il
te sp
s ı</w>
p ah
n ak</w>
müş tü</w>
iş ine</w>
anlay ış
a at</w>
F re
Bur ası</w>
yapıl dı</w>
olduğ um</w>
ke ep
exp an
der gis
ber g</w>
Alk ış</w>
vic tims</w>
kuz ey</w>
evol ution</w>
bro ken</w>
Küç ük</w>
sebe bi</w>
nok tas
la id</w>
ro v
know ing</w>
i um</w>
T as
N i</w>
D ik
5 .
1 ,000</w>
yaz arı</w>
Re member</w>
Je wish</w>
ü mi
s crip
Kad ın</w>
çağır dı</w>
yap alım</w>
pra ise</w>
iste diğini</w>
J o</w>
Bir inci</w>
A Y
içer isinde</w>
bö c
V e
T ek</w>
te x
su y
ok ay</w>
me ti</w>
les ine</w>
ver th
duğ unda</w>
Timo te
ful fil
fin ding</w>
I -
man agement</w>
con fir
B. C.E</w>
verth eless</w>
toplum un</w>
it age</w>
dün yas
No ah</w>
An y
tik çe</w>
eler den</w>
suc ce
il legal</w>
M et
D ef
gör dük
alın dı</w>
Par ti</w>
top rak</w>
smal ler</w>
lık ta</w>
it ory</w>
ar aç</w>
Or ta</w>
K ab
çev res
offic ers</w>
len me</w>
lay ıcı</w>
bus in
M ed
4 3</w>
environ mental</w>
def ence</w>
bil miyorum</w>
şid det
vie ws</w>
san at</w>
may la</w>
karış tır
do gan</w>
ıl masını</w>
ükle er</w>
t az
im possible</w>
i tes</w>
el ds</w>
recogn ize</w>
et le</w>
ei gh
c overed</w>
ülk eyi</w>
stu dying</w>
r d</w>
j an</w>
fonk siyon
ek le
acak tı</w>
şim di
um da</w>
pri ces</w>
fo ot</w>
ege men
d unuz</w>
conv inc
us ted</w>
at eral</w>
as ındaki</w>
si ye</w>
ma tri
hol ding</w>
İ N</w>
yüz lerce</w>
top rağ
jud ge</w>
ev ine</w>
en dim</w>
dil i</w>
di ag
ar en</w>
In stitute</w>
Hol y</w>
ol manın</w>
ken ar
ag ri
Komis yon</w>
çek ti</w>
l ıy
ak ları</w>
sur r
sh ep
kır mızı</w>
es ter
aut y</w>
aff ected</w>
Bo x</w>
shep her
m uyor</w>
ex cept</w>
eff ects</w>
ces aret</w>
n iyet
iler iyle</w>
i -
f ly</w>
va at</w>
düzel t
bir leştir
ac cor
San ırım</w>
Er dogan</w>
taraf ta</w>
ley ic
h i</w>
ek siniz</w>
tik leri</w>
comman d
Satur day</w>
K ır
Cez a</w>
ever s</w>
et mişti</w>
M Ö</w>
su ffer</w>
oppos ite</w>
mem ur
fac ed</w>
f l
değiş im</w>
ik leri</w>
enter tainment</w>
da tes</w>
cel i</w>
başla dılar</w>
Pro j
ım ları</w>
integr ity</w>
i for
güven ilir</w>
A R</w>
ý r
miktar da</w>
t osu</w>
rahat sız</w>
opin ion</w>
obj ect</w>
kül tür</w>
az al
ak tif</w>
Rep res
sp on
re v
fe der
ess ing</w>
tri als</w>
separ ate</w>
ma vi</w>
la c
j ah</w>
erk ekler</w>
öz gür</w>
re present</w>
hol ds</w>
hazır lan
eas ier</w>
V is
An ton
sa s</w>
olabil eceğini</w>
fac il
f et
e ating</w>
coura ge</w>
mey iz</w>
kad ar
R at
I ts</w>
ücre t
ü len</w>
r ace</w>
politi ka</w>
f are</w>
em phas
cal cula
ar on</w>
Alk ışlar</w>
sp or</w>
sil ah</w>
program ı</w>
al d</w>
Timote os</w>
D r</w>
Ç oğu</w>
ve ç</w>
tah min
ci vil</w>
c ry</w>
Nor th</w>
wher e
Cumhur iyet</w>
Ör gü
zorun day
moun tain</w>
2 8
ül ü</w>
under stood</w>
re bel
mol ecu
mi k</w>
ma ması</w>
defin ed</w>
alar dan</w>
Lon don</w>
Jos hua</w>
A D
geç ici</w>
da d</w>
G ile
t reas
son g</w>
ruh en</w>
or ities</w>
lüğ e</w>
ler se</w>
ik ler</w>
chap ter</w>
ar tan</w>
W it
N E
v ity</w>
li der</w>
j a
expres s</w>
değişik likler</w>
ar mağ
al ın</w>
milletvek il
kullan ıc
en tr
&apos; taki</w>
seyah at</w>
is mini</w>
O ther</w>
M c
ul ması</w>
san ırım</w>
ph an
gerçekleş en</w>
at trac
vie wed</w>
tal ep
pray ers</w>
kiş ileri</w>
ecek sin</w>
Mu staf
ras truc
ho mes</w>
bles sing</w>
as sign
V ic
F es
Ar tic
re duce</w>
mov ie</w>
eğ ine</w>
alar ından</w>
T ab
C i
çek il
te en
sk y</w>
it i</w>
electri city</w>
dönem inde</w>
yaş ıyor</w>
yayım lanan</w>
wor se</w>
war ning</w>
en ess</w>
Me an
destro y</w>
ar ım</w>
N uh</w>
preci ous</w>
fac tors</w>
an o</w>
res er
Hiç bir</w>
B us
oper ations</w>
k ent</w>
crimin al</w>
ar tesi</w>
üni versi
pati ents</w>
min ute</w>
lo yal</w>
form ing</w>
competi tion</w>
accep table</w>
G ot
C ity</w>
2 x</w>
tama m</w>
kav uş
k ağ
cos ts</w>
D ör
oran ında</w>
muhalef et</w>
g esinde</w>
Ege men</w>
yaşam ı</w>
diğ imi</w>
Hum an</w>
B in
tion ary</w>
s old</w>
ex istence</w>
et te</w>
alo gue</w>
S tra
C ap
ülk esinin</w>
örne ği</w>
n ical</w>
is in</w>
güv ence</w>
et menin</w>
bire r</w>
Par k</w>
Oli mp
Develop ment</w>
yapt ık</w>
solu tely</w>
sche du
ex act</w>
ar g
Ro bert</w>
Ch in
lık tan</w>
is yon
uni versity</w>
tic ari</w>
the ma
sh ot</w>
sev en
pre pare</w>
h ır
e ers</w>
di g
ar ds</w>
stand ard</w>
p sal
high est</w>
av an
um ents</w>
st ars</w>
sor uyu</w>
lo s</w>
L I
t ap
mal ısınız</w>
değişik lik</w>
cont ent</w>
F esti
sebe p</w>
ma ster</w>
kim senin</w>
in dir
i tions</w>
char ged</w>
angel s</w>
çek ici</w>
yap abiliriz</w>
str on
n ur
göz ünde</w>
cul tiv
ci ted</w>
ch ers</w>
ay ar
Bos na</w>
min net
centur ies</w>
uf ak</w>
strate j
provi ding</w>
privile ge</w>
pic tures</w>
os lular</w>
iç inde
gönder di</w>
S tr
Lüt fen</w>
Ö te</w>
uz at
p l
accur ate</w>
Yak up</w>
if y</w>
heav y</w>
car bon</w>
b öy
Repres enta
yap mış</w>
olo ji</w>
hız landır
dra wn</w>
comp lic
Pro gram
ı larda</w>
çocuğ un</w>
peygamber lik</w>
fam ous</w>
D el
ver me
val i</w>
ur y</w>
opportun ities</w>
enter ed</w>
bir liği</w>
F inan
Ü ye</w>
reflec t</w>
oper ate</w>
n ö
cer em
beli evers</w>
la s</w>
institu tion</w>
go dly</w>
den iz
co de</w>
Off ice</w>
K az
Al man</w>
un ma</w>
thre at
ste m</w>
p a</w>
lerim izin</w>
gün ey
balan ce</w>
S tre
R um</w>
A aron</w>
tes inin</w>
n ut
ay ed</w>
au dience</w>
A çık
is ta
famil i
equ als</w>
contr ol
Hol landa</w>
üst ünde</w>
ma ma</w>
görün ce</w>
dolay ısıyla</w>
T apın
Gru evski</w>
4 1</w>
y ou
uğ unu</w>
tr on</w>
söyle diler</w>
dama ge</w>
vers ite</w>
par ator
Gile ad</w>
Dip not</w>
şir ket</w>
sh aring</w>
nuc lear</w>
Demok ratik</w>
Chi ef</w>
olduğ umu</w>
fic ation</w>
ar chitec
al k
re vol
oc ean</w>
lan ma</w>
ex ecu
any more</w>
us eful</w>
kal p</w>
b ren
ver diğini</w>
türe l</w>
se fer
ov an</w>
Ke ep</w>
ma cı</w>
lül ük
d ö
connec tion</w>
C D
An gel
A M
İngil izce</w>
sıc ak
diplo ma
ım ını</w>
t r</w>
sa ith</w>
ge tiren</w>
H am
Foot note</w>
is imli</w>
biyol o
Or t
yarg ılan
sıf ır</w>
sh ared</w>
düğ ünde</w>
bas sad
We b</w>
Sloven ya</w>
L ab
İngil iz</w>
pla t
jour ney</w>
inf rastruc
yol da</w>
gelenek sel</w>
exp ec
cen tre</w>
lar ken</w>
istik rar
güc ünü</w>
ch osen</w>
at tempt</w>
abil iyor</w>
a v</w>
E S</w>
4 ,
2 9
ız ın</w>
reve aled</w>
ke tin</w>
figh ting</w>
c over
biz imle</w>
Tru e</w>
Abdul lah</w>
v ement</w>
tas k</w>
prophec y</w>
medi k</w>
hikay e</w>
dev let
bağlant ılı</w>
Gr ou
sh el
deep ly</w>
S ey
H ence</w>
thre at</w>
te en</w>
s low</w>
j ana</w>
hap is
S osyal</w>
J our
va at
s over
s car
kula k</w>
kal ıcı</w>
durum unda</w>
cel l
mutlul uk</w>
compas sion</w>
ca uses</w>
Ü y
shap e</w>
ro ck</w>
rema ined</w>
l el
estab lish</w>
ac i
suç u</w>
re sear
la ması</w>
karş ılığ
tra ditional</w>
de st</w>
chec k</w>
Diy elim</w>
B ill</w>
ş aş
davran ış</w>
yaş amak</w>
te es</w>
p ip
gel diği</w>
fac ing</w>
J eh
ür ün</w>
z z
si te
s par
n on
l ıyorum</w>
gördüğ ü</w>
be auty</w>
Th ough</w>
yapt ır
ma p</w>
fin ished</w>
Yugosla v
C a
uc k</w>
person s</w>
ar m</w>
app ed</w>
Fes tival</w>
1 20</w>
yaşam ın</w>
appreci ate</w>
implemen tation</w>
hy dro
gu aran
gazetec i</w>
T O</w>
ad ditional</w>
B oth</w>
s y</w>
estima ted</w>
ax is</w>
ar ms</w>
ap s</w>
weap ons</w>
p sik
ni a</w>
herk ese</w>
Sre bren
Bir lik</w>
sık ıntı</w>
mad de</w>
la test</w>
hastal ık</w>
gre at
en dü
ch er</w>
sum mit</w>
inter pre
cre di
bur ası</w>
tal ar</w>
soruştur ma</w>
mesa j</w>
hay al
comp on
achi eve</w>
stop ped</w>
requ ires</w>
is m
gu il
ý r</w>
play ed</w>
duyur du</w>
domes tic</w>
c old</w>
c ars</w>
Avust ral
iyil ik</w>
imit ate</w>
S lo
N ab
K a
çalış maya</w>
yay gın
yapt ılar</w>
va az</w>
ut y</w>
tou ch</w>
sahip tir</w>
s ake</w>
mode l
i tesi</w>
gök teki</w>
ey n
dün cü</w>
Chin ese</w>
şir keti</w>
şah it
r am
ma tr
karş ılık
dikkat le</w>
alt ındaki</w>
Li ber
L AR
ül ük</w>
çocuğ u</w>
ye bilir</w>
ther wise</w>
olabil iriz</w>
iste dim</w>
fail ure</w>
cop y</w>
b uz
in king</w>
den tial</w>
co ol</w>
ver ir
ort asında</w>
gün ümüzde</w>
Sec retary</w>
C er
üst ün</w>
um p</w>
lil iği</w>
k ers</w>
ista tis
grad u
acağ ımız</w>
ac ci
over se
lon g-
fa il</w>
Ch ris</w>
pro per</w>
ol makla</w>
n d</w>
konu larda</w>
gel er</w>
be ğ
Yugoslav ya</w>
O kul
H app
E ri
st al
rej ected</w>
ner ship</w>
merkez li</w>
ex hibi
dre am</w>
at an
Cum artesi</w>
As k</w>
6 4</w>
diy orlar</w>
art ış
ah i
v ot
tet k
sy m
r ou
f it</w>
zaman ında</w>
initi al</w>
in -
gök te</w>
İb adet</w>
y ir
com mer
B aba</w>
Am ong</w>
tro ops</w>
söyle yerek</w>
m im
liy di</w>
tal ima
im um</w>
güç len
cam p</w>
bildir di</w>
Chil dren</w>
to ols</w>
tiri yor</w>
tion ing</w>
prom ote</w>
or a</w>
con dem
an dır
Lo ve</w>
üy eliği</w>
p e</w>
initi ative</w>
heal thy</w>
aç an</w>
S ın
D ağ
tek lif
h ot</w>
bey in</w>
bek liyor</w>
air s</w>
S izin</w>
Dep uty</w>
ne ur
ec tively</w>
cons um
S we
infrastruc ture</w>
har cam
bal ık</w>
Bun ları</w>
y im</w>
ver sion</w>
tesp it</w>
terror ist</w>
stan tly</w>
pion eer</w>
ol ar
müş ter
organis ation</w>
olay lar</w>
cez alandır
R I
Gör üş
listen ing</w>
ilişk iler</w>
an u</w>
Baş kan</w>
gerek iyordu</w>
ban ks</w>
Pon te</w>
Hebre ws</w>
yumuş ak</w>
o ban
karş ılan
görev li</w>
g ıda</w>
bles sed</w>
L j
En sti
AI DS</w>
yaş a
el inden</w>
V en
ley ecek</w>
Se ung</w>
Sav aş</w>
Hal k</w>
Ar d
stra ted</w>
ec ution</w>
e be
Lon dra</w>
LA R</w>
yayın lanan</w>
ku ş</w>
dür üst</w>
comple ted</w>
cla im</w>
A T</w>
ık lar</w>
mil li
lan ır</w>
ilişk ileri</w>
hayat ı</w>
gel eceği</w>
av es</w>
ul ti
terr itory</w>
star ts</w>
sok ak
cle an
bil iyordu</w>
at ın</w>
appe ars</w>
önem lisi</w>
söyle yen</w>
im kan
engel le
e me</w>
your selves</w>
su rely</w>
H ik
üniversi te
taşıy an</w>
kardeş ler</w>
ic o</w>
fırsat ı</w>
effici ent</w>
bles sings</w>
4 6</w>
robo t</w>
pri mary</w>
low ly</w>
f is
e wise</w>
di alogue</w>
bur n
abil ities</w>
As ya</w>
yön et
v oc
s inc
kan ser
conver sation</w>
Mustaf a</w>
wal ked</w>
tiğ ine</w>
tek lif</w>
hur t</w>
dau gh
açıkla ma</w>
an gel</w>
yoğ un
ur ing</w>
set ting</w>
congre gations</w>
c ab
ak rab
P il
Com mit
3 rd</w>
wor thy</w>
m .</w>
iş let
büyü me</w>
Cypri ot</w>
öğre tim</w>
Öz ellikle</w>
regular ly</w>
e ering</w>
cir cle</w>
bi gger</w>
ad j
ne ği</w>
min al</w>
insan a</w>
f y</w>
al lows</w>
Grou p</w>
ıs ız
writ er</w>
plan ned</w>
kon uyu</w>
yap acağım</w>
tin y</w>
si tes</w>
s kills</w>
re gis
miy iz</w>
ma tes</w>
bac ter
K iş
Şah it</w>
stan ds</w>
kap ı</w>
kap an
deta ils</w>
A bi
fav or</w>
dan ger</w>
Wit ness</w>
yaz ar</w>
teh di
pr inc
loc ated</w>
ir li</w>
in come</w>
gis ts</w>
emo tional</w>
Per haps</w>
öð ren
ter sine</w>
ita in</w>
conduc ted</w>
au th
E T
zay ıf</w>
y aş</w>
sı fır
sl ope</w>
p on
ol maktan</w>
mater ials</w>
he at</w>
famili ar</w>
counter part</w>
Rat ko</w>
Br itain</w>
İ T</w>
tra ffic
si dir</w>
olac ağı</w>
occur red</w>
demok ratik</w>
bula c
F am
E l</w>
so m</w>
mu ha
li mit
gre ement</w>
Şah idi</w>
no tic
mer cy</w>
mantık lı</w>
k abil
genç ler</w>
ac i</w>
W est</w>
Ric hard</w>
P od
2 nd</w>
pos es</w>
ner eden</w>
pre ach</w>
id ance</w>
car efully</w>
as tr
ak er</w>
accoun ts</w>
Alban ians</w>
ad ılar</w>
U T
Scho ol</w>
ç u
tele fon
onom y</w>
fri end
be bek
L ast</w>
G üz
kendi m
al ities</w>
ab und
yüz ey
u b</w>
tre ated</w>
sür üyor</w>
sab ır
man ızı</w>
lar gement</w>
heyec an</w>
hen dis
gün ün</w>
etraf ında</w>
Yunan ca</w>
yan sı
tele vision</w>
sa d</w>
ob viously</w>
kam u
in str
giy s
diğ imizi</w>
az zam</w>
So cial</w>
Ne vertheless</w>
sy mb
high -
foc used</w>
fazlas ını</w>
ce p</w>
bölge deki</w>
S izi</w>
olma dı</w>
n ükleer</w>
essenti al</w>
bel on
dec ades</w>
bu güne</w>
yıl ının</w>
yön den</w>
tr oub
su d
an ket
ih til
F A</w>
figu res</w>
advan tage</w>
Yal n
L ater</w>
H em</w>
refu ge
ev in</w>
ayd ın
Mean while</w>
Kon uş
ýn dan</w>
or adan</w>
h om
P AG
N ey
C ur
özel lik
ula cak</w>
por tion</w>
hatır la
gö ç
go ods</w>
docum ent</w>
bi a</w>
Mes si
su yu</w>
pro to
liter ature</w>
iyet le</w>
durum larda</w>
crow d</w>
bira der</w>
it ors</w>
ede lim</w>
dığ ımızda</w>
consci ence</w>
c ally</w>
ay lık</w>
ğ ine</w>
üm de</w>
ump tion</w>
scen e</w>
in ven
h al</w>
ex change</w>
con cen
ölüm ü</w>
Öz gür</w>
incele me</w>
il aç
en leri</w>
ate gor
Kil is
televiz yon</w>
ro man
durum un</w>
cor respon
E st
Bo z
we ek
san tr
mak ers</w>
hat a</w>
eceğ imizi</w>
der g
at temp
Res ear
O thers</w>
G O
Aj ansı</w>
tw ice</w>
thre e-
over come</w>
en iz</w>
defin ition</w>
Yaklaş ık</w>
Sav unma</w>
A wake</w>
ıl masına</w>
wat ching</w>
sp ending</w>
siz inle</w>
appro val</w>
T ower</w>
ý k
us una</w>
to w
spok es
moun tains</w>
boy s</w>
ask er</w>
V E</w>
sud denly</w>
ner eye</w>
Pol ice</w>
Ç ık
zaman dır</w>
yon un</w>
ma thema
identi ty</w>
ak a</w>
ad ap
O per
A ff
ver erek</w>
cy cle</w>
clo th
Scrip tural</w>
Ü ste
stor e</w>
propos al</w>
phil os
gel ebilir</w>
discus sion</w>
Some times</w>
Bur aya</w>
ş er
İb lis</w>
s üz
iş ç
ifade si</w>
etme liy
daugh ters</w>
D S
çık art
y alı</w>
performan ce</w>
it a</w>
Th r
Br it
telef on</w>
re ven
kar esi</w>
el çi</w>
a .
çev r
x -
stre ets</w>
kal mak</w>
man ner</w>
ic in</w>
git tim</w>
diffic ul
alt ar</w>
unc u</w>
un ion</w>
the ory</w>
plan ning</w>
mahk û
jin al</w>
hi dro
Th ree</w>
6 ,
ım lar</w>
typ es</w>
is ola
al co
adal et</w>
Com mun
ön de</w>
çık ıp</w>
yap ması</w>
us unun</w>
kül türel</w>
encoura ged</w>
ap art</w>
T ut
Cath olic</w>
ver ebil
sın av
per spec
high ly</w>
bölüm ü</w>
Slo bo
um un</w>
ph ot
mo on</w>
bağlan tı</w>
Le e</w>
ne f
me lere</w>
ac il</w>
Son uç
S oru
I l
F ar
&apos; ü</w>
yal an</w>
y az</w>
teach ings</w>
on ur
depen dent</w>
bul du</w>
ad ing</w>
Voj islav</w>
Kitap tan</w>
B lo
tı pkı</w>
muc iz
blo ck</w>
Tem sil
web site</w>
mey v
m ıyorum</w>
ger iye</w>
g las
Gü l</w>
st ress</w>
olas ılığı</w>
mez siniz</w>
kes im
dön dü</w>
d ark
ac les</w>
Genç ler</w>
st able</w>
p is
iz ler</w>
emplo ye
bun ch</w>
ağ ac
appreci ation</w>
S he
Eph es
or anda</w>
il ecek</w>
ho me
hab a</w>
dayan an</w>
cust oms</w>
Srebren ica</w>
G et</w>
ülkeler inin</w>
uz unluğ
ro t
mo tion</w>
inan c
extre mely</w>
ımız la</w>
yur t
ler iniz</w>
concer ns</w>
con text</w>
D ay</w>
tan ın</w>
st ar</w>
ou ris
man if
kaç akç
Yok sa</w>
Yer emya</w>
Ard ından</w>
medic ine</w>
mark ets</w>
J ud
sık ı</w>
oxy gen</w>
ab solutely</w>
R us</w>
Jap an</w>
um b
hükümet inin</w>
artic les</w>
potansiy el</w>
ne ar
k ar</w>
inter nal</w>
hap is</w>
baş layan</w>
ab road</w>
ter ö
mission er</w>
legis lation</w>
in sel</w>
bir ad
Ch urch</w>
ız da</w>
çalış tı</w>
hizme ti</w>
si bly</w>
ar med</w>
Sloven ia</w>
P ros
G S
tu red</w>
re -
p ers</w>
karar lar</w>
diril til
bul ur
bi yo
yas adışı</w>
yap abilirsiniz</w>
y alan
tan t</w>
st ers</w>
ne ydi</w>
ik s</w>
bun lara</w>
Sci ence</w>
Devlet leri</w>
20 13</w>
the l</w>
st res
la l</w>
kap alı</w>
gördüğ ümüz</w>
er ler</w>
bir lik</w>
ad ında</w>
Y O
Değ iş
yap ıyoruz</w>
tro p
olduğ umuzu</w>
i fied</w>
b ak</w>
Ch an
yav aş
me mesi</w>
kazan dır
gru bu</w>
experi ences</w>
al mış</w>
S D</w>
Phil ip
C el
con vic
an lara</w>
Artic le</w>
5 6</w>
yaşam ış</w>
gerç eği</w>
app lied</w>
R ights</w>
uzak laş
mid st</w>
insan lık</w>
geçmiş te</w>
zaman la</w>
tw are</w>
s ought</w>
kavr am
ful filled</w>
bil ity</w>
ad vis
Tanr ısı</w>
ti red</w>
kon ulu</w>
karan lık</w>
charac ter
ati ves</w>
ah ş
W as</w>
7 2</w>
yer den</w>
mektu p
go ds</w>
el ements</w>
per man
heyec an
et mesini</w>
dur uş
cau ght</w>
buil dings</w>
Fil ip
7 .
ş ik
un ity</w>
tut um</w>
sal vation</w>
ol dular</w>
be half</w>
ağ ının</w>
Tanr ısal</w>
Avustral ya</w>
occas ion</w>
mis sing</w>
il ham</w>
P a
pur ch
k el</w>
co ordin
Sek re
Got ovina</w>
Dai resi</w>
qu ick</w>
h at</w>
gir di</w>
cema at</w>
Eng land</w>
4 7</w>
çıkar dı</w>
reason able</w>
le g
katıl mak</w>
Yugosla via</w>
öğren dim</w>
ver imli</w>
m ous</w>
der ness</w>
b ought</w>
ar gu
stri ke</w>
diğ imizde</w>
ai med</w>
prosecut or</w>
polic ies</w>
mesh edilmiş</w>
h ost</w>
Kur dish</w>
3 0
sorumlul uk
m iyordu</w>
di ent</w>
declar ation</w>
P ak
tı b
ri es</w>
prop ag
mu azzam</w>
kal ar</w>
flo or</w>
conn ected</w>
ol muştur</w>
lo an</w>
kâ r
k uy
inan ıyor</w>
every where</w>
civar ında</w>
baş lıyor</w>
M ex
yolsuz luk</w>
y orum</w>
s om
in izden</w>
baş lar</w>
alis ation</w>
Sh ould</w>
J or
E A</w>
B I
eş i</w>
er in</w>
c ross</w>
D il
tut mak</w>
rak am
pow ers</w>
par ayı</w>
nokt aya</w>
mir as</w>
le an</w>
ing er</w>
getiri yor</w>
alis tic</w>
C ha
ver mesi</w>
part ner</w>
gel miş</w>
başla dık</w>
ang les</w>
abilir sin</w>
we alth</w>
vide os</w>
op en
der ly</w>
bırak tı</w>
associ ated</w>
Mer kez</w>
reg ime</w>
n ut</w>
n is
if ic
fac ts</w>
exp ensive</w>
contri bute</w>
bey n
taraf tan</w>
bilg iler</w>
Düş ün
uygula ma</w>
toplum u</w>
ol maları</w>
lendir di</w>
fi elds</w>
c raz
P ek</w>
6 th</w>
presi dency</w>
os t
obe y</w>
ob served</w>
kö k</w>
kolay ca</w>
il ç
car eful</w>
bro ad
bar ın
a u</w>
W H
199 0</w>
yetkil ileri</w>
uyar ınca</w>
to ol</w>
st ressed</w>
resol ution</w>
practic es</w>
ley ip</w>
ger y</w>
bil gil
Kral lığın</w>
4 9</w>
suppor ted</w>
suffer ed</w>
h ast</w>
em i</w>
Chris t
sec ure</w>
har mony</w>
fundam ental</w>
evalu ation</w>
eder iz</w>
duyur u</w>
disp lay</w>
G ran
les son</w>
len iyor</w>
ir di</w>
ff ic</w>
bağım sızlık</w>
Mesel a</w>
&apos; tan</w>
Ç ağ
ser iously</w>
saf ety</w>
f lu
d wel
d less</w>
comp uters</w>
LE R
Hav va</w>
yıl ına</w>
koy du</w>
hazır la
con vention</w>
B et
th row</w>
sig ns</w>
op ti
kendin izi</w>
h ol</w>
acc eler
ac ı
R ef
A sia</w>
bilg iyi</w>
Commit tee</w>
yu var
takipç ilerine</w>
r on</w>
mas a</w>
leştir me</w>
er di</w>
edil ir</w>
bil me
T wit
Ar kad
18 0</w>
u da</w>
mal iyet
lik ten</w>
inan ıyorum</w>
ev inde</w>
büy üy
bas it
Th an
Lib ya</w>
9 .
ül dü</w>
yaz ılı</w>
yaz ık</w>
susta in
refer red</w>
os yal
eğil im
G ive</w>
Baş kalar
B ah
l un
h ate</w>
wil l
söyl üyorlar</w>
gör meye</w>
diy ordu</w>
as h</w>
A ha
&apos; lik</w>
sh or
ri ver</w>
requ ire</w>
kız ı</w>
differ ences</w>
20 th</w>
war m</w>
ne yse</w>
ligh tly</w>
isti h
an ni
Dem ir
tes ini</w>
say fa</w>
san iye</w>
s üz</w>
s ounds</w>
prob ability</w>
pro posed</w>
pos sibility</w>
bri dge</w>
acağ ınız</w>
acak larını</w>
Mec lis</w>
Fran sız</w>
Char les</w>
Bil gi</w>
B ud
5 ,
Üste lik</w>
vol ume</w>
iler ek</w>
ede bilirsiniz</w>
birbir lerine</w>
A lice</w>
proc la
occ up
kolay laştır
dra wing</w>
deney im
H ez
İn an
yeryüz ündeki</w>
nor mal
With out</w>
Kendis ine</w>
E z
tempor ary</w>
la ka</w>
l ıydı</w>
vel oc
ra ti
pos t</w>
iste y
biri m</w>
at tı</w>
z eh
van ov</w>
s ün</w>
over y</w>
ney in</w>
conclus ion</w>
refer en
par k</w>
lil ik
görü ş</w>
enjoy ed</w>
at an</w>
üy ü</w>
viol ent</w>
ton gue</w>
tan ts</w>
kat ılan</w>
incele meye</w>
Sy ria</w>
ıt ım</w>
t ons</w>
kaydet ti</w>
en try</w>
bit k
Sur iye</w>
yaşam ını</w>
p ure</w>
over all</w>
matri x</w>
kay ıt</w>
kal acak</w>
im izden</w>
convinc ed</w>
an -
Gün ümüzde</w>
G DP</w>
Öğ ret
tot ally</w>
t ful</w>
lık ların</w>
for est</w>
cre atures</w>
anay as
T es
Sr p
O h
Mak e</w>
sır adan</w>
me tin</w>
gönül lü</w>
de ş</w>
Jap onya</w>
Austral ia</w>
touris m</w>
tar ih</w>
mo s</w>
ma mak</w>
hik metli</w>
üre til
lan g</w>
kuv vet</w>
ikti dar
biz den</w>
Eğ itim</w>
Be thel</w>
travel ing</w>
survi ve</w>
rema ining</w>
met al</w>
kö ş
değiş ik</w>
bir inde</w>
F E</w>
Ash down</w>
terror ism</w>
require ments</w>
l ý
iste kli</w>
düşün meye</w>
constitu tion</w>
ab use</w>
Slobo dan</w>
Con stitu
tirec ek</w>
hel p
ek tir</w>
der ing</w>
bağ ır
as ide</w>
alış ver
Mid dle</w>
H af
ıs ındaki</w>
ç uk</w>
ç ta</w>
zam ana</w>
tav siye</w>
sağla dığı</w>
profes sional</w>
ou red</w>
les s
ay ak</w>
a ths</w>
C N
wel come</w>
gu idance</w>
ek mek</w>
discip line</w>
P u
yol dan</w>
düş tü</w>
coun t</w>
Parlamen tosu</w>
solu tions</w>
let ters</w>
le st</w>
ettiğ imiz</w>
dikkat li</w>
car rying</w>
alar la</w>
S uç
Educ ation</w>
üm an</w>
tep k
sadak at
priv ati
ma dım</w>
fem ale</w>
Sol ana</w>
Gör ün
stic k</w>
sof tware</w>
sa ved</w>
clos ely</w>
Hep si</w>
G or
y n
süre dir</w>
sh op</w>
ph en
w est</w>
mos tly</w>
fra mework</w>
dro p</w>
değer ini</w>
yarat ıl
sanat ç
mot or
ita at
huk uk
olan ları</w>
dedic ated</w>
cerem ony</w>
cele bra
Twit ter</w>
D on
u ca</w>
olo gists</w>
olay ları</w>
kitab ının</w>
bre ak
associ ation</w>
anne m</w>
ın lar</w>
İ r
h ac
fotoğ raf</w>
ul muş</w>
kus uz</w>
c les</w>
benz eri</w>
b un</w>
Yer yüz
Gün eş</w>
F ark
Er k
pa ir</w>
or row</w>
olas ılığ
mü j
at ıl
Af gh
10 ,000</w>
öf kel
sonr ası</w>
enem y</w>
di rek
appo int
any way</w>
a meliy
ış ını</w>
s ünüz</w>
ko ordin
deter mine</w>
a ine</w>
R os
R ome</w>
B izi</w>
yar ısı</w>
ten der</w>
lead s</w>
Sim il
G a
Öz el</w>
olacak tı</w>
kullan dığı</w>
gel eni</w>
craz y</w>
F i
person ality</w>
gi de</w>
bi ts</w>
R omen</w>
ış ığ
situ ations</w>
si c</w>
ha fi
git al</w>
el imizde</w>
diğ imde</w>
d well</w>
bom b
b ine</w>
- based</w>
wi ves</w>
veloc ity</w>
v as
u fac
th a</w>
sup posed</w>
com mission</w>
z inc
ter ing</w>
sınır lı</w>
sou th</w>
sh ed</w>
T L</w>
A greement</w>
ver eceğim</w>
mev kid
me at</w>
içer ir</w>
eler le</w>
düşün ül
tal e
lic ations</w>
göster eceğim</w>
eler inden</w>
Pod gor
An ad
vurgula dı</w>
may acağını</w>
kel ime</w>
dik çe</w>
Uz un</w>
soru ları</w>
pro of</w>
elec ted</w>
bulun dur
Har ek
çiz gi</w>
tr ack</w>
taraf ında</w>
ref used</w>
il g
grap hic</w>
cur ve</w>
bil miyor
De partment</w>
B R
tah am
olduğ unun</w>
el bette</w>
T it
üst üne</w>
yıl ından</w>
sur vey</w>
is on</w>
is im
il i
ge de</w>
ass ume</w>
Bir i</w>
kan al
iz dir</w>
fazlas ı</w>
fas ter</w>
em br
de tec
ci haz
ap art
Sağ lık</w>
Bro ther</w>
Ön ce</w>
ow ned</w>
n iyet</w>
edec eğini</w>
bor ç</w>
başlan g
as sembly</w>
anlam ıyla</w>
P la
öv gü
sür dü
correc t</w>
M ars</w>
Fol lowing</w>
C o-
Ac tually</w>
ön cü</w>
yardı mı</w>
ob serve</w>
st ret
perspec tive</w>
lar ımıza</w>
k ıt
hop es</w>
gel ince</w>
fes ti
feel s</w>
dok tor</w>
sahi biz</w>
particip ate</w>
def ic
Sonr aki</w>
Kıs a</w>
Kat olik</w>
8 00</w>
ış ık
yaban c
uğ a</w>
uygula maya</w>
min deki</w>
işle m</w>
gö ğ
er en</w>
do z
de v</w>
böl gesinde</w>
a war
TE D
Bak an</w>
ır ız</w>
çek en</w>
om o
mo bile</w>
ma th</w>
lec ek</w>
ir man</w>
as signed</w>
M art
M ag
ş iş
yir mi</w>
th o
süre ç</w>
olo j
kardeş i</w>
görün en</w>
complic ated</w>
b oun
P i
Avustur ya</w>
ter bi
tan ıy
some how</w>
on e-
ol malıdır</w>
it or</w>
con cept</w>
al dılar</w>
P as
un uzun</w>
strugg le</w>
p ack
or g
konuş tuğ
k aya</w>
il aç</w>
gel diler</w>
f ts</w>
defin itely</w>
cla imed</w>
Y at
V ak
SA A</w>
Ensti tüsü</w>
D r
B ush</w>
tra ined</w>
re moved</w>
re action</w>
lığ ında</w>
kö ken
kim in</w>
ifor nia</w>
et ken
ear n</w>
e book</w>
an ah
W omen</w>
Kor int
şim diye</w>
ren e
no body</w>
min den</w>
har m</w>
gener ally</w>
de ad
anla maya</w>
an der</w>
İ t
yetkil i</w>
su ffici
lar ý</w>
gen u
fi es</w>
düzey de</w>
biri ydi</w>
bel ediye</w>
al dat
Z e
S iyas
Pap and
Kan ada</w>
F ır
E lec
B it
secon ds</w>
ov ed</w>
de pre
ob st
f rac
docum ents</w>
Or tak
x ima
ses ini</w>
n da</w>
mi l</w>
ey en</w>
exp los
col labor
al -
Th ink</w>
silah lı</w>
mü l</w>
kiş ilik</w>
invol ves</w>
der ken</w>
bo ost</w>
belie f</w>
Teşek kür</w>
İbran ice</w>
s .</w>
mik ro
mat ch</w>
gı ç</w>
exp lo
doc tors</w>
contr ast</w>
Kö tü</w>
Can ada</w>
sev iyorum</w>
organis ations</w>
mey le</w>
lo g</w>
bu laş
A ir
tra ffic</w>
or ig
memor y</w>
l ilerin</w>
gro wn</w>
geç miş</w>
ev lilik</w>
br ary</w>
V ir
Montenegr in</w>
Anad olu</w>
yum ur
y iti
vade li</w>
itor ing</w>
he ight</w>
et mekten</w>
bak anı</w>
Kür t</w>
B oy
&apos;n den</w>
tasar ru
moder n
mekan iz
kan ın</w>
eğlen ce</w>
3 x</w>
un its</w>
it ler</w>
gi der</w>
aç ıldı</w>
ann esi</w>
Yar dım</w>
u ya</w>
t y-
go od
er n
beli efs</w>
Yöne tim</w>
T or
Söz ünü</w>
üre tim</w>
t öv
sorumlul uk</w>
li ye</w>
la dılar</w>
f at
ettik leri</w>
eig n
e en</w>
Tar ih
5 ,000</w>
p iy
oun ding</w>
oluştur uyor</w>
meş g
mez ler</w>
Fin ally</w>
z at</w>
toplum sal</w>
refer an
num ar
mate ma
mak tı</w>
geç iş</w>
et li</w>
blin d</w>
O A</w>
L İ
K ıl
De ut
yap abilir</w>
st ation</w>
si gara</w>
r ö
min ds</w>
kalk ın
k il</w>
S ür
öz gü</w>
süre de</w>
mış lardı</w>
mur der</w>
er o
Sor umlu</w>
H İ
0. 000</w>
kapsam lı</w>
iş le</w>
acak ları</w>
Sp an
Representa tive</w>
Ad ri
üç te</w>
tarz ı</w>
se z
re ward</w>
pray ed</w>
ob vious</w>
k id</w>
deb ate</w>
youn ger</w>
un less</w>
lerim ize</w>
iş ken
Anay asa</w>
çab uk</w>
Ön cel
stru ck</w>
pub lish
pro tes
pri ority</w>
hayat ın</w>
dem ir</w>
ad ds</w>
. &apos;</w>
n an
ma hal
geç meden</w>
equip ment</w>
deste ği</w>
amp iy
Ne ther
2 ,000</w>
ınday dı</w>
st range</w>
n ik
fa ir
cust ody</w>
T ech
Aust ria</w>
tri p</w>
ten ts</w>
p azar</w>
har d
hak lı</w>
aç tığı</w>
çocuk larının</w>
vef alı</w>
val ent</w>
over ning</w>
oluştur an</w>
obj ects</w>
mic ro
man ıza</w>
lo ck</w>
jud ges</w>
Rap or
Fam ily</w>
Der neği</w>
Baş lan
Bab am</w>
ın c
representa tive</w>
mer kez</w>
gar den</w>
exam ine</w>
ahi y</w>
T ime</w>
O F</w>
wil d</w>
tut ul
oy na
lüğ ünü</w>
karak ter
judi cial</w>
i ted</w>
hoş lan
c rac
bassad or</w>
şey dir</w>
ım ının</w>
İb ade
yaşınday ken</w>
ris ing</w>
r ay
lik a</w>
hes ap</w>
he art
gen işle
gaze te
eğiti mi</w>
biç im
bilgisay ar
Atlan tic</w>
Çocuk lar</w>
pos t
okul a</w>
et ini</w>
descri be</w>
al ması</w>
ak es</w>
Papand re
Cal ifornia</w>
A C
ı tı</w>
mov es</w>
m ers</w>
lis iniz</w>
k um
büt çe</w>
Y üre
wil derness</w>
valu able</w>
ister seniz</w>
anlaş ması</w>
19 14</w>
ıl dığında</w>
say ısının</w>
olasılık la</w>
mahke me</w>
iş inde</w>
dön üp</w>
dil e
di u</w>
anlat tı</w>
Fac ebook</w>
gör dük</w>
gay re
faal iyet</w>
ek leri</w>
constitu tional</w>
c in</w>
T ic
Sav aşı</w>
Podgor ica</w>
IN G</w>
Ş ir
yarat tığı</w>
tech nical</w>
sev ere</w>
se es</w>
kaybet ti</w>
ing u
huk uk</w>
hop efully</w>
fela ket
- 1</w>
önc esinde</w>
yardım cısı</w>
person ally</w>
l ment</w>
il ing</w>
gü müş</w>
ey alet
assign ment</w>
B raz
Al liance</w>
yar ım</w>
se fer</w>
quar ters</w>
pre ven
man lar</w>
liğ indeki</w>
kom şu</w>
ic ed</w>
fif th</w>
ede biliriz</w>
U.S .</w>
L evi
tercü me</w>
per form</w>
kullan dı</w>
integr al</w>
gar ip</w>
ey al
et old</w>
car eer</w>
bü r</w>
alle l</w>
Hal k
Ön c
tay in</w>
mak ale</w>
li fe
li am</w>
at ları</w>
R en
yap mamız</w>
le f
kur mak</w>
gran ted</w>
gay et</w>
con tains</w>
blo c</w>
am i</w>
Phar a
Anlaş ması</w>
üre tic
scre en</w>
p ush</w>
olma z
nem li</w>
is inden</w>
in spir
im mun
S us
H igh
9 9</w>
8 -
taraf a</w>
k ör
iz len
ge tire
dayan arak</w>
Ann an</w>
üste sinden</w>
üst ün
vo y</w>
vec tors</w>
u ları</w>
satis fac
ruh un</w>
kur tu
el ini</w>
S ov
Pol is</w>
M ik
AS A</w>
ım ına</w>
nüf us</w>
in i
il ebilir</w>
ex isting</w>
def ine</w>
acc used</w>
Bo ş
y at</w>
sor ts</w>
re move</w>
o to</w>
mas ın</w>
gü l</w>
en di</w>
dik al</w>
ar ance</w>
S up
tıb bi</w>
pay ing</w>
l ıyoruz</w>
keep s</w>
ci an</w>
Nether lands</w>
199 8</w>
yatır ımc
toplant ısında</w>
reli ef</w>
pul l</w>
olur uz</w>
ol masının</w>
fin ite</w>
değerlendir me</w>
bur adan</w>
benz e
ac knowle
v eti</w>
struc tures</w>
soğ uk</w>
psal mist</w>
ester day</w>
edil ecek</w>
ım cı</w>
Çoc uk</w>
trans lation</w>
net te</w>
kal ır</w>
eder ler</w>
Ol li</w>
Mu h
ı p
tan ık</w>
m uy
la dığını</w>
do ws</w>
dağ ıl
bir d</w>
Repub lika</w>
Gen ç</w>
Eli jah</w>
çek iyor</w>
traffic king</w>
p ping</w>
olog ist</w>
ol es
m ür
en ty</w>
eign ty</w>
doğ um</w>
V ide
ti s</w>
tasar ım</w>
referen dum</w>
program mes</w>
k y</w>
den omin
ad ults</w>
Sp irit</w>
s alar
re ques
proph ets</w>
g it</w>
biz ler</w>
K uş
5 4</w>
İ ste
yaşadığ ımız</w>
sar s
s wit
mo m</w>
mesel a</w>
kullan ıyor</w>
inter view</w>
for etold</w>
cevab ı</w>
be at</w>
Y A</w>
Hıristiyan lar</w>
7 ,
tol er
tar get</w>
sözc üsü</w>
in et</w>
fe ed</w>
f ying</w>
ad res
00 ,000</w>
yaz ı</w>
pos sibly</w>
part ners</w>
mü hendis
ju red</w>
ex ter
er ship</w>
Mer haba</w>
tab an
remark able</w>
rejo ice</w>
ex tent</w>
comfor table</w>
bap tism</w>
M P</w>
ınız dan</w>
zir a</w>
sonuc una</w>
gün ler</w>
gec ik
f li
elim in
doğ al
atmos phere</w>
Ima gine</w>
Day ton</w>
üni versite</w>
w ed
pleas ure</w>
kork ut
ecek ti</w>
dı y
dise ases</w>
tiri r
tin iz</w>
oper ating</w>
her self</w>
gra fik</w>
ağ aç</w>
Yeş u</w>
Mol d
kal ıyor</w>
is tis
gün eş
ful ness</w>
No el</w>
G ar
B ra
2 50</w>
ümüz ü</w>
wor st</w>
th ine</w>
sy mp
f low</w>
ama dı</w>
Com missioner</w>
s n
ok ed</w>
dri ving</w>
as sets</w>
Phara oh</w>
He alth</w>
8 .
v iz
karşılık lı</w>
kal ma</w>
desi res</w>
E c
A l</w>
şir e</w>
incredi ble</w>
en dir
car d</w>
Tan ıtım</w>
yaz dığı</w>
ti an</w>
senten ce</w>
ran som</w>
lul uk</w>
iliş kil
hüc re</w>
gg ing</w>
es cape</w>
benz er
Bun lardan</w>
z an
vüc ud
sü t
res h</w>
represen ted</w>
pos s
mektu p</w>
kap asi
inhabi tants</w>
ihtimal le</w>
cy cl
commit ment</w>
bilg ileri</w>
baş arı</w>
Gaze tec
G il
uyar dı</w>
tri be</w>
ter ek</w>
sev er</w>
re stric
ihtil af
dik lerinde</w>
cloth es</w>
arran gement</w>
an ım
L ou
tur ing</w>
temper ature</w>
sahip liği</w>
rekab et</w>
iç inden</w>
getir diği</w>
asp ects</w>
I T</w>
Ö dü
tör ü</w>
sol ute</w>
mil yar
inci dent</w>
edec eğim</w>
coun cil</w>
V ahiy</w>
Rom alılar</w>
7 -
Ş eh
öğrenc ileri</w>
te y
sürec ek</w>
ren k</w>
notic ed</w>
i di
ev den</w>
cou p
bacter ia</w>
8 3</w>
sergil e
journ alist</w>
equ i
el a</w>
dur uyor</w>
bro ke</w>
Yaş am</w>
Srp ska</w>
Mus eum</w>
us ual</w>
there of</w>
sugg est</w>
min ority</w>
j us
inv itation</w>
in tu
eler inde</w>
de diği</w>
al ay
W o
S E</w>
Ş ek
yon el</w>
prof it</w>
olay ı</w>
o therwise</w>
me al</w>
in izle</w>
ente gr
edil ebilir</w>
dır ım</w>
düzen len
com ments</w>
benim se
De mek</w>
Bey tel</w>
İsrail in</w>
wal ls</w>
on da</w>
men i</w>
lider leri</w>
appe arance</w>
Ban ja</w>
9 5</w>
7 00</w>
şiddet li</w>
vic tory</w>
leav es</w>
de vice</w>
ail esi</w>
I ş
ç oban
tes ti
out come</w>
ough ly</w>
iç eri</w>
dr inking</w>
bus y</w>
aş a</w>
al ize</w>
G S</w>
sy l
n ekler</w>
ibade t</w>
h yp
fir st
do g</w>
dev am
de tained</w>
bu çuk</w>
bor u</w>
a than</w>
Mesel leri</w>
uyor sunuz</w>
söyle mişti</w>
per cei
ola maz</w>
ik ili</w>
geç i
fer red</w>
tran sport</w>
ro oms</w>
rela tives</w>
gibi dir</w>
Ken d
E mp
Dip lo
D uy
vüc u
ste in</w>
sover eignty</w>
san iy
re presents</w>
qu anti
parti si</w>
mücade le
İç işleri</w>
yap ın</w>
occ ur</w>
insan lardan</w>
dis cer
başlangı ç</w>
al dık</w>
S ak
zir v
on ar
hastal ığı</w>
görev l
extra ordinary</w>
dark ness</w>
S an</w>
Radi o</w>
G lo
B E</w>
ç el
refer ence</w>
mas ıdır</w>
id are</w>
g ical</w>
Mac ar
Ju li
5 2</w>
ü b
t ile</w>
sac red</w>
par lak</w>
organ ized</w>
off ers</w>
iste ği</w>
is ion</w>
house hold</w>
g â
et ler</w>
d aş
bebe k</w>
bak mak</w>
al i
a im</w>
ş a</w>
tu k
söz lerinde</w>
sen ior</w>
prof essor</w>
ly n</w>
kend ileri</w>
ih rac
fark lılık
confi dent</w>
conclu ded</w>
ar k</w>
İsrail liler</w>
l ur
kendi me</w>
k os
ex ists</w>
etkil eş
değişik lik
con stantly</w>
back ground</w>
alco hol</w>
Pro fes
İt tif
ver sal</w>
tu k</w>
tanıt ım</w>
sor s</w>
s amp
boy un</w>
ban ds</w>
am bi
Rad ovan</w>
5 3</w>
ül mesi</w>
yap ıyorlar</w>
sh oul
olmam ız</w>
iden tify</w>
he l</w>
earth ly</w>
app lication</w>
yardım ıyla</w>
yan lar</w>
par adise</w>
olan lara</w>
kü tü
in jured</w>
endi şe</w>
dış ındaki</w>
confir med</w>
Mex ico</w>
He men</w>
Ş unu</w>
seç il
rol ü</w>
repor ters</w>
luğ a</w>
fol lows</w>
ec tions</w>
OS CE</w>
AG İT</w>
A D</w>
haber ine</w>
Milos evic</w>
K â
II I-
volun te
ver ebilir</w>
v it
sugges ted</w>
san ay
intelli gence</w>
dir ler</w>
dene tim</w>
cha e
G ez
199 7</w>
&apos;n dan</w>
technolo gies</w>
s lightly</w>
mevkid aşı</w>
it ance</w>
gen e</w>
dör düncü</w>
demon strate</w>
cons ul
bul dum</w>
L atin</w>
Çev re</w>
sh ut</w>
iste miyorum</w>
is iyle</w>
hizme te</w>
any body</w>
ad ıyla</w>
ülk esi</w>
yönte m</w>
el der</w>
bi s</w>
P eygam
tamam lan
se at</w>
introduc ed</w>
etmeliy iz</w>
cr iter
ak ıl</w>
Span ish</w>
Karadz ic</w>
F oun
vek tör</w>
rol l</w>
mut laka</w>
gün den</w>
et mesine</w>
düzen leme</w>
M Ps</w>
K ayn
Hez ek
Afri can</w>
kar ısı</w>
ik i
hapis han
bil en</w>
tom orrow</w>
ti ous</w>
seas on</w>
pos itions</w>
elek tron
di yar
coc aine</w>
can l
bo at</w>
ad ver
Ku lesi</w>
D I
ıs rar</w>
an gry</w>
L an
Den iz</w>
D an</w>
ıl ıp</w>
zaman dan</w>
göz e</w>
den gel
de aths</w>
199 1</w>
üst len
üs sü</w>
resol ve</w>
p ir
mül tec
kil ling</w>
iste ğini</w>
incele mek</w>
el in</w>
Yak ub</w>
K ut
Iv o</w>
D ic
public ation</w>
plan ı</w>
kar t
cep tion</w>
biyolo jik</w>
Z aman
üle bilir</w>
çek ir
recei ving</w>
r ven
offic er</w>
lel ikle</w>
kar iy
görün üş
d ry</w>
abi es</w>
Do dik</w>
than ks</w>
o mas</w>
lis ted</w>
ir ade
en th
demokras i</w>
c ked</w>
appro xima
Avrup alı</w>
Ar my</w>
Alex ander</w>
sec tion</w>
main ly</w>
it ar
indic ated</w>
du res</w>
olan ak</w>
distribu tion</w>
de t</w>
So on</w>
tü ken
sen si
res sing</w>
pe oples</w>
n it
ev a</w>
de put
aç ı</w>
çalış maları</w>
ver miş</w>
kamp any
han dle</w>
es indeki</w>
bi sik
D j
Christ mas</w>
5 1</w>
ne ut
lül ük</w>
et tir
dis crimin
ınd adır</w>
you ths</w>
v ac
un sur
in o</w>
co ff
burn t</w>
An ti
A ile</w>
yücel t
vo tes</w>
süre ç
surpris e</w>
mü dürü</w>
ma dal
giri ş</w>
al abil
Sev gi</w>
ç li</w>
siz den</w>
lar sınız</w>
ide al</w>
ic ide</w>
cla ims</w>
ad ers</w>
&apos; la</w>
İ H</w>
ö den
wel l-
we ar</w>
identi fied</w>
great ly</w>
enti ty</w>
Yer el</w>
Mit rov
L it
B la
Ü zer
yürü tü
sin ler</w>
ne v
multi ple</w>
mele k</w>
mecl is</w>
gel y</w>
Kur ul
H D
Gre gor</w>
ýn ý</w>
ç ıl
we ak</w>
syl van
suç lu</w>
loc ation</w>
e ars</w>
di j
ayrınt ılı</w>
Süley manın</w>
H ab
E L
v est</w>
stu died</w>
pat la
inv est</w>
in no
ik li</w>
e ans</w>
dış ına</w>
Pub lic</w>
H ey
5 0
ra z</w>
perfor med</w>
olur sak</w>
olabil ecek</w>
mi es</w>
kullan an</w>
kalab alık</w>
hayvan lar</w>
employe es</w>
dık ça</w>
Nik ol
çocuk larını</w>
ti tle</w>
sı v
hum ble</w>
ges el</w>
gerçek te</w>
fortun ately</w>
en or
Bre zil
ı ç</w>
ret li</w>
re lev
relev ant</w>
neighb or</w>
malıy dı</w>
hakik at</w>
f at</w>
biri k
bi l</w>
W ar
S m
Be ing</w>
Af gan
8 5</w>
sistem inin</w>
rven kovski</w>
on going</w>
ab solute</w>
V o
N E</w>
yıl lardır</w>
sacrific es</w>
om en
kendis inin</w>
e es</w>
arkad aş</w>
an mış</w>
T A</w>
ü dür</w>
öğrenc iler</w>
yüzyıl ın</w>
tra tion</w>
tarih inde</w>
müdah ale</w>
men izi</w>
kiş ilerle</w>
iş lerini</w>
ihtiyaç ları</w>
endur e</w>
der siniz</w>
ch ose</w>
ac compan
Oğ l
toplan tı</w>
kö pr
etk in</w>
alar ıyla</w>
19 th</w>
tur izm</w>
te ful</w>
state ments</w>
olan ların</w>
experim ent</w>
et memiz</w>
em ir
ec i</w>
dur an</w>
Korint oslular</w>
C z
stre am</w>
ni tion</w>
mes le
d al</w>
bakar sanız</w>
a ması</w>
P ho
L at
Bus iness</w>
A A</w>
İsrail oğulları</w>
ö mer
yaptık larını</w>
w ave</w>
tik ten</w>
reddet ti</w>
ol duk</w>
gö tü
cor e</w>
b ound</w>
ayak ta</w>
Yıl dırım</w>
Def ence</w>
6 6</w>
ç ı
tur n
so lar</w>
ser ves</w>
milletvek ili</w>
ma aş
lık larını</w>
liğ inden</w>
cos ine</w>
bil ateral</w>
aras ından</w>
H or
İs tik
v ey
ulaş mak</w>
tran spor
si p
hosp it
ex tra</w>
E N</w>
çalış ıyorum</w>
par allel</w>
mas ız</w>
inher itance</w>
ev liliğ
am ber</w>
U mar
Sekre teri</w>
S u</w>
yu b</w>
v in
re aching</w>
en de
ed ness</w>
deput y</w>
bek lenen</w>
atten ding</w>
Tanr ım</w>
uğr una</w>
kri z</w>
ihtiyaç larını</w>
en han
dolar lık</w>
do t</w>
ay kır
V ladi
Tom islav</w>
Ortak lık</w>
N az
Ef endi
zor und
relation ships</w>
man ufac
ish a</w>
gör me</w>
em is
duğ unuz</w>
Pek ala</w>
se f
olduğ unuz</w>
lead ership</w>
kar ek
kan ıt</w>
id ari</w>
gel eceğini</w>
fa irs</w>
düş en</w>
şar ap</w>
reve al</w>
pro test</w>
iş ten</w>
i da</w>
e deki</w>
do ors</w>
diğ inizde</w>
anlam lı</w>
Hak ları</w>
ış ığı</w>
uz man</w>
t ment</w>
sun ulan</w>
mü h
mek ti</w>
fac tor
ey lem</w>
commer cial</w>
Sp ec
Ney se</w>
Isa ac</w>
G osp
Bak anlar</w>
çalış ırken</w>
yağ mur</w>
v ast</w>
sylvan ia</w>
saldır ı</w>
s ün
re pen
our ing</w>
il diği</w>
fan tas
charac ter</w>
ban ka</w>
arkadaş ı</w>
an ma</w>
al ized</w>
Olymp ic</w>
Hat ır
çık ma</w>
çalış ıyoruz</w>
t- hand</w>
kr iter
karar ını</w>
ha f</w>
er ini</w>
di gital</w>
cez a</w>
başar ısız</w>
S O
r it
mesaj ı</w>
kazan mak</w>
görec eksiniz</w>
dış işleri</w>
d ouble</w>
cycl op
M eksi
E yub</w>
D nev
parti al</w>
miy im</w>
lan dığı</w>
iyor sa</w>
flo ck</w>
e ast</w>
ar ch
Güz el</w>
po inted</w>
m ics</w>
kas ının</w>
i eld</w>
ga ther</w>
cab inet</w>
Müs l
şek li</w>
ıl dığını</w>
çalış tır
y oruz</w>
y esterday</w>
terr or</w>
st ones</w>
seçim ler</w>
ni hai</w>
m -
iy idir</w>
her o
eler dir</w>
e me
bi anet</w>
allow ing</w>
konu lar</w>
iy at</w>
hon est</w>
du s</w>
di versity</w>
F otoğ
9 2
6 2</w>
vis a</w>
vari ety</w>
um s</w>
ther more</w>
soy undan</w>
repor tedly</w>
mi gr
döne mi</w>
böl genin</w>
AN D</w>
üre tim
yetiş kin
put s</w>
iste diğimiz</w>
im mor
ill ness</w>
halk ına</w>
as ın</w>
Vladi mir</w>
Slov ak
sürec inin</w>
pur poses</w>
di stan</w>
Yaş am
İ ran</w>
taş ıyor</w>
pah alı</w>
ne h
molek ül
ev li</w>
depen ds</w>
V an</w>
U r
Th omas</w>
PAG E</w>
Kal kın
w itn
seçim leri</w>
reduc ed</w>
pr oud</w>
op pres
mas sive</w>
mak ul</w>
any where</w>
alçakgönül lü</w>
T at
O ri
- year-old</w>
ıs ın
öğrenc ilerine</w>
su r</w>
man aged</w>
los ing</w>
human ity</w>
al ak
Sal on
N um
G üç
ır k
çıkar mak</w>
peac eful</w>
le ti</w>
is tin
E d
pursu e</w>
ortam da</w>
kur ulan</w>
k öl
inves tors</w>
criter ia</w>
aş kın</w>
Re gi
Cri minal</w>
İsla m</w>
iste me
he aded</w>
dec ade</w>
cumhur başkanı</w>
c ular</w>
ar az
Yaz ıların</w>
Ri ver</w>
Dör t</w>
Cul ture</w>
Ber lin</w>
As sembly</w>
ödü l</w>
ç iğ
Ö nemli</w>
respon sibilities</w>
rela tively</w>
oy unu</w>
lar ınızın</w>
in ner</w>
gu ide</w>
genç lerin</w>
c ok</w>
b ad
ay ıp</w>
Simil arly</w>
o ever</w>
m ly</w>
lığ ından</w>
la v
kr alı</w>
gel eri</w>
dev letin</w>
c us</w>
O la
töv be</w>
colle ge</w>
b us</w>
Stra te
Kİ T
F un
yolcul uk</w>
tr il
ol malıyız</w>
en ever</w>
al on
Pro te
ür ünü</w>
önem ini</w>
z i</w>
win dow</w>
son uca</w>
philos oph
kap as
gün ünde</w>
den et
bul maya</w>
biri dir</w>
bel ediy
arti sts</w>
anlat mak</w>
an istan</w>
20 14</w>
özgür lüğü</w>
t ate</w>
dele gation</w>
alar ca</w>
ail esinin</w>
S cot
Ir mağ
si k</w>
sev gis
me lerde</w>
ifa des
gra fi
f uel</w>
C learly</w>
Bi b
wh el
lay alım</w>
hak iki</w>
foun dation</w>
evren in</w>
emo tions</w>
Ob ama</w>
Bro ok
öğü dü</w>
vot ers</w>
versi ties</w>
sel ling</w>
public ations</w>
kov a</w>
iş lev
al dığını</w>
ön lem
memnun iyetle</w>
lov es</w>
increas ingly</w>
git tiğ
exc iting</w>
div or
da tions</w>
Stre et</w>
Sonuç ta</w>
E astern</w>
Afgh anistan</w>
çağr ısında</w>
yer li</w>
kırık lığına</w>
hisse diyorum</w>
fulfil lment</w>
eng age</w>
edil diği</w>
ay art
V la
Macar istan</w>
Hak k
Festi vali</w>
önc esi</w>
yap acağız</w>
küç ük
istiyor sanız</w>
g ary</w>
f ro
emek li</w>
vers ary</w>
v ul
s op
m üyor</w>
kuruluş u</w>
geliştir mek</w>
Mus lim</w>
J av
y ap</w>
transla ted</w>
st a</w>
or ed</w>
necess arily</w>
mac ılar</w>
li fes
le gs</w>
laun ch</w>
iy im
h or</w>
gör ür</w>
gene tik</w>
el le</w>
col lap
ck y</w>
bul duk</w>
Than ks</w>
T İ
S es
Qu es
Müsl üman</w>
Hep imiz</w>
Gel iş
çocuk lara</w>
radi o</w>
kork u</w>
il miştir</w>
ic e
c ow</w>
agen da</w>
af fairs</w>
E ven
insan lığın</w>
exhibi tion</w>
et mez</w>
dol lar</w>
dis cre
ass ess
Pol onya</w>
M other</w>
Jor dan</w>
Dra gan</w>
Direc tor</w>
İsp an
Öğ re
yok sul</w>
we igh
tehlik eye</w>
iç e</w>
for give</w>
eff er</w>
dığ ımda</w>
biz zat</w>
bak arak</w>
Messi ah</w>
zar arlı</w>
tran si
sın ıf</w>
g od</w>
fun ding</w>
fas hi
ed enler</w>
dör t
an ız</w>
Yahu diler</w>
Th ess
Afgan istan</w>
si m</w>
sa r</w>
kayıt lı</w>
ik lim</w>
di so
descri bes</w>
des cen
bek leyen</w>
ah la
no w
gerek ç
g u</w>
disas ter</w>
buy ur
au di
V ol
Thr ough</w>
H A</w>
F u
unuz a</w>
tüke tic
teş kil</w>
söyle yebil
so y</w>
sig ning</w>
sen ar
ma mı</w>
i bi</w>
hun ger</w>
hafi f</w>
geniş let
Sırp lar</w>
Hak ik
pre hen
mey eceğim</w>
konuş maya</w>
ibadet lere</w>
glas s</w>
ga tes</w>
bab asının</w>
U L
Sam ar
O t
H y
yetkil ilerin</w>
or gan</w>
kal mış</w>
emp ty</w>
pros per
malar da</w>
lar ımın</w>
hoş nut</w>
cons umption</w>
ail enin</w>
M un
Ekonom i</w>
Atlan tik</w>
ır sak</w>
öne mi</w>
yap ıyorum</w>
yap ıp</w>
siz ce</w>
nor m
earth qu
cap able</w>
appoint ment</w>
adam lar</w>
Mar ia</w>
üm se
ör nekler</w>
yol ları</w>
terri ble</w>
sebe p
satis fied</w>
s lowly</w>
regi ons</w>
protes to</w>
protec ted</w>
or tam</w>
mark ed</w>
lin ked</w>
k ış
disp ute</w>
Sch effer</w>
S I
ılac ak
v ize</w>
müzak ere</w>
labor atu
kullan ma</w>
gi fts</w>
e --</w>
cir cu
cho ices</w>
birbir inden</w>
as ing</w>
E K
yarat mak</w>
particip ation</w>
müdah al
industri al</w>
eş y
bor ders</w>
ber ek
al ıyoruz</w>
ter im</w>
stron ger</w>
ren in</w>
o ma
kıs ım
ist ent</w>
i ja</w>
f r
belir gin</w>
arti st</w>
art ıyor</w>
am oun
T re
Ho op</w>
some where</w>
sol ved</w>
pas sing</w>
miş lerdi</w>
meth ods</w>
ma tely</w>
l ings</w>
V uk
Tran sla
Mitrov ica</w>
Kalkın ma</w>
villa ges</w>
top lu</w>
tah t
kitab ında</w>
göre lim</w>
gel mek</w>
forma l</w>
eder siniz</w>
düşün üş
cha in</w>
Sav aş
Kor k
ver im
suy un</w>
pop üler</w>
işbir liğini</w>
h ell</w>
ebil eceğini</w>
di sh
belir tiyor</w>
alın ması</w>
al ous</w>
ad ayı</w>
T a
Ak ade
1 000</w>
ıyor sa</w>
talima t
sız ın</w>
nef es</w>
hedef i</w>
communic ate</w>
başkalar ıyla</w>
aç abilir</w>
al acağız</w>
V OA</w>
Foun dation</w>
E D</w>
çık mak</w>
çöz mek</w>
tutuk landı</w>
to -
tarih te</w>
op i
lis in</w>
koy un</w>
gel dim</w>
Y etkil
Thess alon
Mes ih
Mad de</w>
ç e
Ç ek
tou ched</w>
su dden</w>
liğ iyle</w>
k a
i us</w>
gel iyordu</w>
f ran
ek ip
begin s</w>
Mus ic</w>
öl dü
ten tion</w>
re gre
lif ted</w>
illu stration</w>
favor ite</w>
d iler
Kes in
Ke mal</w>
Fur thermore</w>
yol larını</w>
y iz</w>
kö le</w>
in ler</w>
busin esses</w>
Resear ch</w>
K ü
Göz cü</w>
G ra
İş leri</w>
ğ a</w>
yıl ki</w>
yok sun</w>
yap manın</w>
wi de
ther ap
satisfac tion</w>
equi valent</w>
ad ul
Uy uştur
Tek nolo
P ren
L ik
5 7</w>
&apos; si</w>
sus pen
reli m</w>
kil o</w>
genu ine</w>
friend ship</w>
fiy at</w>
fe atures</w>
fark ına</w>
fa iz</w>
col ors</w>
Wil liam</w>
ö bür</w>
surpris ed</w>
ow ner</w>
fin ish</w>
et mektedir</w>
ak ta</w>
ak lı</w>
adığ ını</w>
W in
Pen n
D U
ılac ağını</w>
yenil en
un able</w>
succe ed</w>
mey ve</w>
mes lek
kullan maya</w>
in ting</w>
eli gi
eh en
dığ ımı</w>
contr ary</w>
Umar ım</w>
çek mek</w>
yıl a</w>
yer in</w>
resol ved</w>
rahat lat
pre gn
ish es</w>
im perfect</w>
gerek irse</w>
etme leri</w>
ar acı</w>
Gör düğ
şir ketin</w>
te ars</w>
par ently</w>
kim yasal</w>
ir on</w>
invest ments</w>
disp lay
ar ama</w>
achiev ed</w>
A L</w>
umuz da</w>
scen ar
over whel
oksi jen</w>
obser ver</w>
mü r</w>
karşılığ ında</w>
gel mesi</w>
ent y-
bas ın
S tar
Arkad aş
Anton io</w>
İ li
çağr ıda</w>
tw el
n on</w>
kral ın</w>
indic ate</w>
d ary</w>
cez a
bul ut
Geç miş
Ar t</w>
w ounded</w>
schedu led</w>
kuv veti</w>
contr act</w>
boyut lu</w>
alo g</w>
şark ı</w>
ç adır
veril ecek</w>
tim iz</w>
sü res
soh bet</w>
rö por
perman ent</w>
les sons</w>
iç in
ir d</w>
c üm
Tanr ınız</w>
Jon athan</w>
Brook lyn</w>
ver dik</w>
st ock</w>
sou thern</w>
ker esinde</w>
duy ulan</w>
da ted</w>
W is
öl çek
op tion</w>
me ter</w>
kad ına</w>
iğ in</w>
chil d
SA L</w>
Por tu
Aff airs</w>
tw enty</w>
the tic</w>
say ısını</w>
recog nition</w>
r ose</w>
privati sation</w>
gen es</w>
extre me</w>
elec tron
det ay
deman ds</w>
H ouse</w>
Örgü tü</w>
rela tive</w>
qui et</w>
pro min
parlamen to</w>
i þ
görü le
d ans</w>
Müz ik</w>
Ital ian</w>
Üç üncü</w>
tartış ma</w>
opti mis
fin ance</w>
as ts</w>
al mayı</w>
GS Y
Fat mir</w>
D O
ş udur</w>
ünüz de</w>
Öncel ikle</w>
yolsuz lukla</w>
topla m
suffici ent</w>
siy ah</w>
ko v</w>
for es
düzenle diği</w>
bula bil
Penn sylvania</w>
L inda</w>
y ük</w>
win ter</w>
ter ns</w>
sür ük
re member
pain ting</w>
numer ous</w>
kon uyla</w>
inde dir</w>
ex plan
emer gency</w>
da ima</w>
alın acak</w>
şef kat
ır sanız</w>
vak it
st yle</w>
sh ouldn</w>
por no
kom ün
geçir di</w>
gelecek teki</w>
fas cin
di sor
5 th</w>
ır nak</w>
uc uz</w>
ra ising</w>
olmas a</w>
i ety</w>
conflic ts</w>
baz ılarının</w>
Hun gary</w>
D K</w>
çalış ması</w>
tr end</w>
ta j</w>
ro ads</w>
cat ch</w>
ak u</w>
U yan
F lor
E lek
199 2</w>
ığ ını</w>
tru ths</w>
mey eceği</w>
inten ded</w>
değiş tire
colum n</w>
candi dates</w>
believ es</w>
ark asında</w>
ama ç</w>
Kesin likle</w>
G ür
Ben j
- year</w>
t less</w>
söyle dim</w>
n in
mis takes</w>
lo ad</w>
kötül ük</w>
el derly</w>
e ing</w>
diğ inizi</w>
an iden</w>
V el
Tek rar</w>
R ah
M ov
H il
ã o</w>
Üy esi</w>
u v
state -
sp ot</w>
ri tes</w>
n dan</w>
ma dılar</w>
histor ical</w>
et mekle</w>
dra ft</w>
değiştir mek</w>
benz iyor</w>
b our
Isla mic</w>
Eli m
6 7</w>
yal var
t ıp</w>
sevinç le</w>
s inde</w>
mik tar</w>
iy ice</w>
haf t
gener ations</w>
eğ e</w>
değil iz</w>
arkadaş ım</w>
S osyal
M en
M A</w>
Ey üp</w>
örne ğ
uzak laştır
uyan ık</w>
sevg isi</w>
resear chers</w>
politi k</w>
may acağım</w>
iste ğ
exter nal</w>
cl in
b abies</w>
z one</w>
ul ous</w>
u red</w>
miş ler</w>
mahkû m</w>
kan ser</w>
ih lal</w>
ger gin
cru cial</w>
ca using</w>
avan taj
U K</w>
In v
H aber
ıy ım</w>
yal ty</w>
tüm ü</w>
tu haf</w>
thr one</w>
pr int</w>
en ted</w>
con tro
bulun maktadır</w>
abileceğ imiz</w>
Mur at</w>
C ould</w>
özel liği</w>
zor lan
th -
sürec ini</w>
subj ects</w>
standart larına</w>
sen ce</w>
re act</w>
pra tik</w>
luğ un</w>
iz lik</w>
exper t</w>
I gor</w>
D G</w>
ı larından</w>
Ç ek</w>
threat ened</w>
the or
re place</w>
men tion</w>
kil it</w>
getiri r</w>
encoura ging</w>
ak sine</w>
D al
spe aks</w>
lif y</w>
hem şire</w>
an ity</w>
aff lic
S iz
M aj
H ur
.. ..</w>
Ş ırnak</w>
tan ce</w>
sol id</w>
eş siz</w>
diye biliriz</w>
Every one</w>
Ephes ians</w>
Ar ma
yürür lüğe</w>
ph oto</w>
meliy im</w>
la malar</w>
kardeş leri</w>
itu de</w>
gönder il
Ül k
tır man
sp ek
regula tions</w>
nimet ler</w>
milli yet
ma ture</w>
koy mak</w>
de ar</w>
ab led</w>
G oran</w>
öğü t</w>
so il</w>
n is</w>
lar ın
it er</w>
dist inc
de light</w>
crip tion</w>
cele br
beğ en
baş kaları</w>
alar ındaki</w>
ak la</w>
Yu kar
I T
G eri</w>
E fes
ım ından</w>
na bis</w>
man a</w>
kaynak ları</w>
innov ation</w>
ik iye</w>
gla d</w>
for e
elek tri
cam era</w>
ber aber
N ex
B LE</w>
ınız la</w>
yaş adı</w>
st ro
olduğ unuzu</w>
man lık</w>
k is
baş lı</w>
aç ığa</w>
ade qu
Or d
Kar am
GSY İH</w>
y as</w>
sustain able</w>
offer ings</w>
kar bon</w>
ir ing</w>
gra de</w>
en voy</w>
ek ran
consci ous</w>
ch ron
alan larda</w>
Y ön
Ber isha</w>
2 1st</w>
geç iyor</w>
gel mez</w>
dy nam
co ast</w>
bu z</w>
ayır t</w>
art tı</w>
Y ou
SAY FA</w>
6 -
3 ,000</w>
özgür lük</w>
yar gı
ver mişti</w>
toplul uk
tec av
sp ac
or tada</w>
not lar</w>
mis yon
eğlen celi</w>
el eş
dah i</w>
b atı</w>
P lus</w>
E u
tüğ ü</w>
tis inin</w>
ma gn
la dım</w>
j ic</w>
iler let
görev ini</w>
ev rim
dığ ınızda</w>
de fe
continu ing</w>
con qu
akıl lı</w>
ün ce</w>
çerçev esinde</w>
sta ur
spec if
molecu les</w>
lay abilir</w>
is tic</w>
cor ner</w>
c isi</w>
belir len
anay asa</w>
C lin
ş ük
ö len</w>
mas i</w>
ister im</w>
ettiğ im</w>
direc ted</w>
adım lar</w>
İs veç</w>
zor lu</w>
prote in</w>
presi dential</w>
pre me</w>
politi kalar
p ounds</w>
okul da</w>
lab or</w>
im kâ
encoura gement</w>
Yük sek
R am
5 8</w>
üy dü</w>
örgü tü</w>
vir us</w>
sugg ests</w>
organiz ations</w>
ni gh
impro ved</w>
gü mr
fikr ini</w>
destek lemek</w>
denomin ator</w>
de li</w>
Sec ond</w>
N ASA</w>
Ken din
Şahit ler</w>
uş u</w>
ur lar</w>
ten ed</w>
sa f</w>
rapor da</w>
mission ary</w>
mis sed</w>
kı v
kâ hin</w>
görüş me</w>
geçer lidir</w>
exp on
Z or
N ur
Hay di</w>
C O</w>
mal ık</w>
kir li</w>
geliş miş</w>
ex ce
dil de</w>
ass ist</w>
V as
Prof essor</w>
F T</w>
Brezil ya</w>
199 6</w>
yer lere</w>
v iç
tal ity</w>
s man</w>
ort amın</w>
m our
har can
gur ur</w>
enter ing</w>
consider ation</w>
command ments</w>
cema atin</w>
bırak ıp</w>
bakan lığı</w>
ati c</w>
S U
ş ire
ç ilerin</w>
yol la</w>
ses siz</w>
ren der</w>
oto bü
or dered</w>
net works</w>
m iyorlar</w>
hay ran
düny ası</w>
dro pped</w>
R ac
Kral lığının</w>
w itnesses</w>
ver iler</w>
vek ili</w>
mesel e</w>
iyor dum</w>
hi dden</w>
hal i</w>
gör me
func tions</w>
educ ational</w>
anla m</w>
ö dey
teşek kürler</w>
stat üsü</w>
shar es</w>
sak in
produc ing</w>
k aha</w>
control led</w>
co med</w>
cemaat te</w>
Allah ın</w>
sub tract</w>
stat ü</w>
pla in</w>
oluştur mak</w>
ne ed
n ör
katıl maya</w>
har ik
gr ounds</w>
git tikçe</w>
f low
dev re
da da</w>
bar ri
Y ay
Meksi ka</w>
8 ,
ü l</w>
unuz da</w>
topla ma</w>
lu dur</w>
ken tin</w>
hum ility</w>
g y
faz la
en lere</w>
c ömer
R L</w>
N in
ç öl
umuz a</w>
sam imi</w>
oyn ay
kiş iden</w>
he diye</w>
geç er</w>
etk ileri</w>
depres sion</w>
Mar tin</w>
An nem</w>
- D
ıyor duk</w>
İç inde</w>
çocuk larına</w>
wel comed</w>
th i
ses sions</w>
mer ely</w>
ma be
k g</w>
inan ın</w>
et leri</w>
bu ğ
acade mic</w>
Kur tul
z ey
yeryüz ünü</w>
y aya</w>
ve get
uz z
ris ks</w>
pri de</w>
lay abil
g ged</w>
es te
duy dum</w>
bur n</w>
bak ter
IN A</w>
vo iced</w>
unut mayın</w>
trans formation</w>
trans fer</w>
koşul lar</w>
hes ab
etkile di</w>
c ek
aykır ı</w>
an ces</w>
W hatever</w>
M ount</w>
5 9</w>
çoğ unluğu</w>
vis iting</w>
som ut</w>
sec re
malıy ım</w>
ish ment</w>
har m
canc el</w>
bi c</w>
başar ısız
akade mis
Por tek
H u
Be ş</w>
9 ,
uz laş
u pri
ru led</w>
pro mo
ne k</w>
mis s</w>
incredi bly</w>
göster erek</w>
gerek tirir</w>
durum unu</w>
da ire
chem ical</w>
bir birim
H on
öğret men</w>
yen ler</w>
yaş amaya</w>
yap acağı</w>
us ion</w>
sh ift</w>
ro ws</w>
mes in</w>
kötül ük
it ate</w>
istiy orlar</w>
f lying</w>
enor mous</w>
diplo matic</w>
altern ative</w>
ab ol
S ez
S em
vul ner
val ence</w>
tri bula
meşg ul</w>
f light</w>
etk iler</w>
dün üz</w>
conn ect</w>
L azar
telef onu</w>
s h</w>
pol lu
pat terns</w>
n an</w>
lus u</w>
lar i</w>
h ız</w>
düny asında</w>
di ya</w>
der ek</w>
comman der</w>
ch er
aç ılan</w>
A lek
w. org</w>
sur gery</w>
ris t</w>
p ayı</w>
iç ten
iy im</w>
d ust</w>
cha ir</w>
Pet er
L A</w>
vis itors</w>
su ya</w>
siyas et
lar ıma</w>
il de</w>
h ur</w>
dığ ımızı</w>
dil en</w>
cultiv ate</w>
Sal i</w>
Pol and</w>
uz an
su it</w>
say ıları</w>
kıs kan
işken ce</w>
art tır
Cz ech</w>
İstik rar</w>
yaşad ık
uz laşma</w>
sor dum</w>
p he</w>
ov ska</w>
or adaki</w>
o ci
man date</w>
lider ler</w>
le gi
lar ınıza</w>
gür ül
cez ası</w>
as ınız</w>
Ve ya</w>
N et
G ide
uz unluğu</w>
s can
reform ları</w>
quar ter</w>
men d
de dir</w>
Y ü
Devlet ler</w>
6 1</w>
ç ileri</w>
ye ah</w>
va ad
t ad
st ake</w>
play ers</w>
lü ler</w>
lor d</w>
köt üye</w>
kurul u</w>
kad ını</w>
iler inde</w>
cell ent</w>
bit ki</w>
bilg iye</w>
S ur</w>
Davut oğlu</w>
Arma ge
ıyor sanız</w>
ð itim</w>
sorun larla</w>
sol da</w>
sat ış</w>
rehber lik</w>
inter ven
K UT
ücret siz</w>
öz ür</w>
çık acak</w>
çiz g
y el</w>
taraf ýndan</w>
su icide</w>
strate gic</w>
ru k
iç ten</w>
cumhurbaşkan lığı</w>
bab anın</w>
açık tır</w>
as ız</w>
ab sor
çoğ unun</w>
we ather</w>
vehic le</w>
un k</w>
sec ular</w>
se ats</w>
or du
j er
iğ ini</w>
help ful</w>
eb ev
dığ ın</w>
de si</w>
cri ed</w>
başkalar ını</w>
bas kıs
analy sis</w>
Ru men</w>
K el
Gö ster
A gain</w>
Ş eye</w>
önc ülük</w>
yeter siz</w>
yaz ıyor</w>
respon ded</w>
re staur
op posed</w>
maz lar</w>
istik rar</w>
duygu larını</w>
değer leri</w>
c ılar</w>
bir lik
belir ten</w>
b est
assu red</w>
alis ed</w>
Un der
S üre
R FE</w>
Geç tiğimiz</w>
ığ ına</w>
çel iş
yüküm lülük
yarat tı</w>
proce dures</w>
nut ri
li ps</w>
di sa
değil ler</w>
clo ck</w>
Y A
Bo ok</w>
ta il</w>
shepher d</w>
pro visions</w>
olur sunuz</w>
neighbor s</w>
kim sel
j w.org</w>
iş a</w>
gidec ek</w>
gerçek çi</w>
b less</w>
V uk</w>
M la
His tory</w>
Cema at
A .</w>
7 8</w>
İ man</w>
v o</w>
orig in</w>
oku mak</w>
mis take</w>
ma dık</w>
lo yalty</w>
appro aches</w>
üç gen
uz un
türe vi</w>
ten s</w>
t ill</w>
resi dents</w>
pri orities</w>
parç ac
mach ines</w>
la t</w>
exten ded</w>
consider ing</w>
ci ary</w>
Z el
Un ut
M ev
Can a
100 ,000</w>
to s</w>
re con
h ek
guil ty</w>
collec tion</w>
Re gar
KUT SAL</w>
1 -
Çoc uğ
z o
uzak ta</w>
tech ni
teach es</w>
kıs ım</w>
gör kem
et ary</w>
cre ative</w>
anl is</w>
M ek
I D</w>
ış ma</w>
lic it</w>
len in</w>
ha fif
fair ly</w>
ek sen
doğrul uk</w>
din am
dic tion</w>
YO U</w>
T R
P os
yüz yıl</w>
sun duğu</w>
sun du</w>
ro ots</w>
prosp ect</w>
ma den
intel lec
hi de</w>
gör üyorum</w>
figu red</w>
en able</w>
conclu de</w>
ch ic
S öyle
Oğ lu</w>
t y
re placed</w>
görün tü</w>
fiy atı</w>
eceğ inden</w>
diğ eri</w>
böl üm</w>
T ok
Karam anlis</w>
yürütü len</w>
wide ly</w>
tık tan</w>
twel ve</w>
tiy at
sağ lığı</w>
okyan us
mode ls</w>
min imum</w>
memiş ti</w>
l ılığı</w>
is yan</w>
il iler</w>
herk esi</w>
e z</w>
d ges</w>
bur ned</w>
b ı
ağ ında</w>
amız da</w>
F on
Every thing</w>
w ick
suppor ting</w>
rul er</w>
pro mp
per cen
ob tain</w>
iz es</w>
imple ment</w>
ihtiyac ım</w>
f resh</w>
edi a</w>
dij ital</w>
cre te</w>
car ds</w>
bur ning</w>
ad y</w>
Hel lo</w>
Ba al</w>
12 th</w>
Ş er
yar ı</w>
um uzun</w>
tapın ma</w>
strate jik</w>
sonr adan</w>
plas tic</w>
lan acak</w>
l ıyorlar</w>
inş aat</w>
görüş mek</w>
ex posed</w>
day dı</w>
buy du</w>
Mat t</w>
EM CD
Bel ediye</w>
8 1</w>
ır sınız</w>
üz ün
troub led</w>
saat te</w>
ri ches</w>
n elerdir</w>
mon itoring</w>
m iydi</w>
invol ving</w>
esk iden</w>
düşün erek</w>
commit tee</w>
başlat tı</w>
b right</w>
Ste ve</w>
Ruh i</w>
Ber işa</w>
7 3</w>
sa ge</w>
ran t</w>
ph ase</w>
pati ence</w>
ong ly</w>
olacak lar</w>
kal an
h ole</w>
eksi k</w>
baş tan</w>
agre ements</w>
W he
K ir
B ol
Ak deniz</w>
Ac ade
ves sels</w>
tat lı</w>
em ret
eler iyle</w>
duk tan</w>
disp os
dey işle</w>
Vide o</w>
I ran</w>
Braz il</w>
İ y
öl ü
tık ça</w>
refuge es</w>
proc ed
mar ily</w>
in er</w>
gerçekleş ecek</w>
doğru dur</w>
denk lemi</w>
bölge ye</w>
bi ology</w>
ar ts</w>
al abiliriz</w>
Mold ova</w>
M üc
EMCD DA</w>
Benj amin</w>
B uc
şehr in</w>
yay ıl
uni ted</w>
tep e</w>
taş ı</w>
no ise</w>
kay gı</w>
investi g
ic at</w>
etkiley ici</w>
doğrul t
declar e</w>
clas s
belirtil di</w>
b ones</w>
Gen elde</w>
B oğ
sun uz
otur an</w>
miktar ı</w>
kor um
kaynak lanan</w>
impro ving</w>
görül dü</w>
bulun mak</w>
b ayr
Demir taş</w>
A y</w>
şimdi den</w>
ý l
tes is
kiş ilerden</w>
Sar ah</w>
Minis ters</w>
Ül kenin</w>
yp e</w>
ref er</w>
pip eline</w>
oc k
my ster
il ham
fin ans
fil mi</w>
el ite</w>
as al</w>
Tic aret</w>
Bel gi
BI BLE</w>
sen inle</w>
mo thers</w>
hey kel
has sas</w>
gra teful</w>
employ ed</w>
e bilir
dan ts</w>
b ond</w>
K eş
4 th</w>
öde me</w>
yel low</w>
prepar ing</w>
paral el</w>
ikti dar</w>
ific ation</w>
ep h
ed ge</w>
dön dür
difficul ties</w>
cor por
anx iety</w>
ad dy</w>
S af
sp r
olacağ ız</w>
br on
boz ul
R as
Cev ap
Aş ağ
ır ı</w>
x x
kur um</w>
kor ku
iyor sun</w>
geçir mek</w>
duy duğumuz</w>
arkadaş ları</w>
S FOR</w>
İm parator
yıl ları</w>
facil ities</w>
bel oved</w>
baş kan</w>
agen cies</w>
touris ts</w>
tal ık</w>
strength ening</w>
st ayed</w>
prison ers</w>
merha met</w>
kri tik</w>
jo ining</w>
im inin</w>
i bar
f ı</w>
emin im</w>
edec eğiz</w>
de plo
bre a
acağ ımızı</w>
Yaz ılar</w>
T elek
Man as
G iri
6 8</w>
şahit lik</w>
zaf er</w>
yüzyıl daki</w>
yo z
y orlar</w>
var lığını</w>
toplum unun</w>
serv ation</w>
sak in</w>
os si
ken ar</w>
increas es</w>
fac tory</w>
engin eering</w>
defic it</w>
bur den</w>
birbir ini</w>
bil ecek</w>
balan ced</w>
ath le
O f
Her hangi</w>
For mer</w>
F el
v ahş
ula te</w>
prote st
mean ing
man ip
koc a</w>
ef endim</w>
der ler</w>
d ye</w>
ab and
U p
Th aci</w>
Jovan ovic</w>
İs viç
rak am</w>
pre -
obj ective</w>
n es</w>
k uc
e dir</w>
cover ing</w>
at om</w>
Y E
Sor uyor</w>
ım .</w>
te sts</w>
proper ly</w>
norm ally</w>
müzaker elerin</w>
iğ ren
in sight</w>
ig ned</w>
fo ol
el led</w>
böl gesi</w>
azın lık</w>
ad ama</w>
ön lemek</w>
çab aları</w>
yap malıyız</w>
ver meyi</w>
sorun ların</w>
s ö
kar deş</w>
kap say
kal ite
görec eğiz</w>
gru bun</w>
dist ur
con crete</w>
ch ur
bil l</w>
as y</w>
an a
ah lak</w>
advan ce</w>
abilir di</w>
Inter ior</w>
Ener ji</w>
6 3</w>
mut lak</w>
m ıydı</w>
kusur lu</w>
kas te
göz yaş
gaze tesi</w>
ga ined</w>
fil ed</w>
endiş elen
a ward</w>
Ek si</w>
2 &apos;ye</w>
Ü r
vis its</w>
sin yal
read s</w>
oğl unun</w>
n ings</w>
mas raf
kar bon
ist ler</w>
hisse diyor
geliş me</w>
es as</w>
du ty</w>
bah s
ag ues</w>
Mil an</w>
G it
ş if
yüksel t
susp ects</w>
me sidir</w>
le an
ge ous</w>
diag nos
bur ied</w>
b ow</w>
k ategor
f it
ex cited</w>
bira z
alt ın
z .</w>
yer ler</w>
seç men
s or</w>
princip al</w>
ok uma</w>
im ing</w>
ek e
edil emez</w>
edecek tir</w>
de h
bel ong</w>
ý m
un employment</w>
travel ed</w>
to hum
miş tik</w>
mil k</w>
kaç ak</w>
kal madı</w>
hat tı</w>
ek te</w>
c ad
ati vity</w>
ad ult</w>
Levi tes</w>
yetiş kin</w>
success fully</w>
sal t</w>
re di
prosecut ors</w>
physi cs</w>
ol arı</w>
messa ges</w>
lar gely</w>
fonk siyon</w>
dedic ation</w>
conf ron
can nabis</w>
al ey
adal et
1 .</w>
çev iri
zih insel</w>
yüz ü</w>
yiti r
tr ust
titu des</w>
tecrü bel
ta y</w>
sub mitted</w>
sal e</w>
las yon</w>
kap ıl
im anı</w>
boz uk
b ath</w>
anlaş manın</w>
an tly</w>
am ış</w>
akıl lıca</w>
aff ection</w>
Stan d
Sci enti
En cyclop
wor ried</w>
uygulan ması</w>
tra dition</w>
söz leş
sub stan
sat ış
ple ased</w>
perf ec
par an
p it
or ad</w>
meth od</w>
gayre tle</w>
gal ax
fig ur
düz gün</w>
do yum</w>
combin ation</w>
bildir ildi</w>
acade mics</w>
Kendi si</w>
Baş kan
17 th</w>
15 th</w>
ön ces
söyl üyorum</w>
pol is
particip ants</w>
os lav</w>
li cen
kendim ize</w>
g ments</w>
dev o
coff ee</w>
belirtil en</w>
aşağ ıya</w>
anlay ış</w>
anla tan</w>
an cy</w>
abund ance</w>
D ub
A ri
şey le</w>
ör t
w ars</w>
senten ced</w>
pleas ant</w>
pe ten</w>
olma ması</w>
of t</w>
matema tik
lin k</w>
li ft</w>
expres sions</w>
bir çoğu</w>
S top</w>
M e</w>
Bor is
üğ e</w>
ver ileri</w>
her halde</w>
h es</w>
dil inde</w>
bağ lam
Mil orad</w>
Medi a</w>
A maz
ros o</w>
karış ık</w>
gi ant</w>
dar be</w>
d ost</w>
V ie
Milos eviç</w>
Bar roso</w>
zaman ın</w>
yaş ıyoruz</w>
w eren</w>
sin ir
si an</w>
q i</w>
every day</w>
edin mek</w>
a ims</w>
Ken ya</w>
Fark lı</w>
Bağ ım
........ ........
Öz gür
worship pers</w>
w aves</w>
um ur
om a</w>
lüğ üne</w>
hep imizin</w>
en coun
dey ken</w>
determin ation</w>
be ings</w>
avro ya</w>
S ON
Ques tions</w>
İz mir</w>
ulaş tır
th iş</w>
terr itor
siste min</w>
religi ons</w>
prosp ects</w>
mi dir</w>
i ade</w>
h o</w>
equ ality</w>
em r
electri c</w>
dük ten</w>
at re</w>
aras ına</w>
Z er
Mus li
Bel ç
tut ar
te eth</w>
say ısız</w>
men t
kur ma</w>
kanıt lar</w>
ilişk iye</w>
ihtiyac ınız</w>
h et
c m</w>
bri ef</w>
Wor k</w>
SE E</w>
S iste
Rab bin</w>
L es
Karadz iç</w>
Ener gy</w>
Christi anity</w>
199 3</w>
ul ty</w>
u ki</w>
stri ve</w>
n iye</w>
konuş urken</w>
karşıla mak</w>
id ent</w>
he diy
ful fill</w>
el li</w>
co ş
b one</w>
Tra ian</w>
CN N</w>
öğrenc isi</w>
vektör ü</w>
taham mül</w>
sü resi</w>
si as
sağ a</w>
persec ution</w>
me lerinin</w>
kurul ması</w>
komut anı</w>
i ation</w>
ev es</w>
em a</w>
e bilirler</w>
durum daki</w>
değiş ti</w>
day ı</w>
wed ding</w>
sey di</w>
ra ç</w>
pat ri
o ş
nokt aları</w>
kok ain</w>
fır t
foot ball</w>
em bar
alle ged</w>
al dığımız</w>
Ver y</w>
Mo der
M ey
Americ ans</w>
ş art</w>
w ings</w>
v ad
uz ay</w>
sınır ları</w>
sevg iyle</w>
re war
p ac
me tr
m or</w>
kur du</w>
ilk eleri</w>
gümr ük</w>
eff ectively</w>
bur da</w>
Hel p</w>
8 th</w>
1 &apos;e</w>
üğ ün</w>
temsilc isi</w>
tas yon
sm art</w>
m ülk
kom is
i i</w>
hik met</w>
gör sel</w>
gene tic</w>
ek siyon
develop ments</w>
ar a
S ık
Kim se</w>
y in
ti tute</w>
s cri
long- term</w>
la sik</w>
la mış</w>
iş im</w>
his se</w>
halk ını</w>
ettiğ inde</w>
dur du</w>
cle sias
bu günkü</w>
Nex t</w>
N ap
E di
199 0s</w>
ür ler</w>
örgü t</w>
tut umu</w>
proj esi</w>
pres su
mey dan</w>
mar ry</w>
hon es
grup lar</w>
gider ken</w>
fa ult</w>
de par
cü l</w>
cil ik</w>
bak tı</w>
Transla tion</w>
T ı
O ffic
B lack</w>
An y</w>
şü phe</w>
ür ri
önder lik</w>
writ ers</w>
vic dan
tiri p</w>
sürec inde</w>
lin ear</w>
kam er
iti raf</w>
hydro gen</w>
gö ç</w>
ger ide</w>
foun ded</w>
diy se</w>
R uth</w>
Mak al
seven th</w>
sen ding</w>
mak sızın</w>
in visible</w>
hem şire
gün de
fal ls</w>
f en
et mekte</w>
amay acak</w>
P ress</w>
y ağ</w>
u re
swe et</w>
sin ir</w>
program s</w>
play er</w>
on y
ne z
fre ely</w>
fark ı</w>
değiş ken
day ken</w>
cen az
agri culture</w>
Z am
N ever</w>
K amp
üy elerinin</w>
si r</w>
sec ts</w>
mış tık</w>
la b</w>
kilo metre
judi ciary</w>
itar ian</w>
ins ur
i u</w>
dem ir
b ina</w>
öy kü
öf k
yan ıl
l ıların</w>
hiç biri</w>
göster meye</w>
anni versary</w>
P ur
H aw
F our</w>
E sa
&apos; le</w>
şek er</w>
İ ler
wr ath</w>
tribula tion</w>
simp lify</w>
s lo
merkez inde</w>
kal eme</w>
iz leme</w>
hayvan ların</w>
har vest</w>
custom ers</w>
con tain</w>
bırak ıl
be aring</w>
appe al</w>
Ser ge
N es
Ku v
D ah
İn cil</w>
um dan</w>
tut an</w>
tav siy
semb ol
ref ers</w>
re ver
pri ze</w>
near by</w>
hal en</w>
getirec ek</w>
ev ident</w>
cour ts</w>
colle agues</w>
adlandır ılan</w>
abil isation</w>
L aj
ş un
y ö
ten se</w>
tab ern
op ol
no tion</w>
kitab ın</w>
in ç</w>
ex cellent</w>
dık larında</w>
disc over</w>
dec re
co operation</w>
O ut</w>
Mic ros
z ab
tasarru f</w>
sensi tive</w>
inter ior</w>
fun d</w>
başkan lık</w>
I L
Değ er
şey lerle</w>
vüc ut</w>
vis ual</w>
tho do
sade leş
pri marily</w>
ola bilirler</w>
i ds</w>
hol i
her şeyi</w>
her şey</w>
görüş ü</w>
gur ur
gel mişti</w>
form ula</w>
en le</w>
cel er</w>
benef ic
ağ r
amac ını</w>
Müc ade
Ekonom ik</w>
yak ar
ver irken</w>
ula ted</w>
tre pren
tan e
söz lerin</w>
sen den</w>
istan t</w>
intro duce</w>
görür sünüz</w>
ey di</w>
e tik</w>
bulun duğunu</w>
ag ers</w>
Sah ip</w>
Kul lan
ulaş tı</w>
th eta</w>
ta x
regis tered</w>
pro vision</w>
müj dec
du l</w>
denklem in</w>
başlay acak</w>
artır mak</w>
anlaş maya</w>
al abilir</w>
- in-
ıc ılar</w>
su e</w>
statis tics</w>
seviy ede</w>
r us
pla te</w>
os ity</w>
kalab al
dol ara</w>
dec line</w>
comp are</w>
ben e
arg ument</w>
acci dent</w>
K af
ş unlar</w>
ıc ısı</w>
ür ken</w>
Ü z
testi mony</w>
ola te</w>
kontrol ü</w>
gi veness</w>
getir diler</w>
değişik liği</w>
c up</w>
bes len
al gor
Y aban
T S</w>
Par adise</w>
ülk elere</w>
yap ıcı</w>
san ın</w>
sab ah
municip alities</w>
me mek</w>
la manın</w>
ken ara</w>
k ra
il ler</w>
ge ome
chap ters</w>
baş ından</w>
assess ment</w>
R ed</w>
Hav ing</w>
H as</w>
Any way</w>
çalış tım</w>
ziy ade</w>
recogn ized</w>
rec al
phen omen
olmas ıdır</w>
kısm ında</w>
kal ın</w>
hop ing</w>
harek eti</w>
güven liği</w>
gö mül
g as
elec tr
al y
Res ul</w>
F az
D E</w>
yol larla</w>
work er</w>
tuğ u</w>
tar if</w>
ro b
oluş ur</w>
naz ik</w>
konfer ans
ihtiyar lar</w>
ih l
i ded</w>
fe ature</w>
di vision</w>
bil diğimiz</w>
başla mak</w>
Kor e</w>
10 -
0 &apos;a</w>
ır t
ý þ
uyar ıda</w>
tas ks</w>
repor ting</w>
pen cer
kıy af
ir siniz</w>
implemen ting</w>
gr as
sah ne</w>
proced ure</w>
pas aj</w>
mov ies</w>
mean while</w>
hizmet inde</w>
heal th
gu es</w>
veril mesi</w>
obli gations</w>
lan dığını</w>
festi val
erkek lerin</w>
er te
edil diğini</w>
S ok
Mü dürü</w>
Am bassador</w>
thre ats</w>
kö y</w>
f led</w>
elektron ik</w>
discus sions</w>
dic t</w>
combin ed</w>
com promise</w>
cal m</w>
be den</w>
asp ect</w>
alan lar</w>
Mahke me</w>
Bİ R</w>
ter ran
r ken</w>
pack age</w>
kurtar ma</w>
hit ap</w>
hap se</w>
di ş</w>
car ing</w>
at tri
ampiy on
ac ılık</w>
Spe aking</w>
S K</w>
Geor gi</w>
ık lı</w>
t os
pre valence</w>
ph ones</w>
ol dug
nis peten</w>
mi xed</w>
m ere</w>
konu ya</w>
gar an
et ken</w>
düşün ebilirsiniz</w>
doğ du</w>
devo tion</w>
destek leyen</w>
ac ılar</w>
Yahud ilerin</w>
Tanr ıya</w>
Ne bu
Hiz met
Fre edom</w>
B ayr
İbran iler</w>
â r</w>
us i
terran ean</w>
sinc ere</w>
presen tation</w>
p eki</w>
off spring</w>
le meye</w>
inti har</w>
gerek tiğine</w>
ex clus
dil ik</w>
cen net</w>
1 10</w>
İr landa</w>
öncel ikle</w>
yet ki</w>
yardı ma</w>
uygulan an</w>
tama mı</w>
sig nal</w>
sh oc
sey in</w>
liy oruz</w>
land s
içten likle</w>
implemen ted</w>
gün leri</w>
gün ey</w>
gü dü
ende av
di c</w>
cul p
b ling</w>
Bo ard</w>
1. 5</w>
unc lean</w>
tığ ınız</w>
tor ate</w>
paylaş mak</w>
oluş uyor</w>
o bo
ley i</w>
koşul ları</w>
haz in
göre ve</w>
gi ren</w>
fal len</w>
deh ş
de ler</w>
com mo
b ag
am ıyor</w>
ak ın</w>
L ar
5 -
İl ya</w>
ö tesinde</w>
çöz ümü</w>
çoğ unu</w>
uyor dum</w>
ur ban</w>
spokes man</w>
sandal y
par anın</w>
p len
okul u</w>
kurtar mak</w>
ko yar
k inden</w>
iş ley
it ary</w>
g ev
fal ling</w>
eş lik</w>
dep end</w>
clo thing</w>
bun da</w>
K us
D ut
ış ın</w>
ýn da</w>
w point</w>
plat form</w>
gi z</w>
dey di</w>
administra tive</w>
Bak ın</w>
zar ar
yaz ılmış</w>
uc usu</w>
si yonu</w>
rela tes</w>
gör müş</w>
establish ment</w>
es en
enti rely</w>
def alarca</w>
arz u
app lying</w>
add ressed</w>
accomp lish</w>
Sam iri
G ün</w>
Doğ an</w>
Bran ko</w>
Amerik alı</w>
200 7
yer leri</w>
than k
ma ç
m m</w>
la mayı</w>
güc üne</w>
cl oud</w>
Mer kel</w>
Ha e</w>
Fin lan
C iz
10 th</w>
ım ında</w>
İ L
ý s
se ye</w>
rapor u</w>
parag rap
ot a</w>
mul titude</w>
lo ans</w>
lan abilir</w>
kıs men</w>
har der</w>
fut bol</w>
etkiley en</w>
curren cy</w>
bre aking</w>
S oy
S A</w>
H â
Finan ce</w>
F ak
ıy sa</w>
ut ter
thin ks</w>
temsilc ileri</w>
om i</w>
lu c
fu gi
dri ven</w>
D ru
7 th</w>
ümüz e</w>
yüz ünü</w>
si vely</w>
reduc tion</w>
ori jinal</w>
or ial</w>
karek ö
gel e</w>
eter nal</w>
bölgeler de</w>
bağ lıdır</w>
aley h
Tr act</w>
S ub
S P
K aç
As sy
yönte mi</w>
ti veness</w>
t ın</w>
otur up</w>
mark s</w>
m its</w>
l ı
indic ates</w>
diy al
denk lem</w>
L et
Happ y</w>
G ünü</w>
B eta</w>
8 4</w>
çoğ unluğ
men ize</w>
gra ted</w>
gan g</w>
circu it</w>
ail em
V ar</w>
Sar a</w>
Millet ler</w>
Dar win</w>
C li
3 -
yarat an</w>
soru ya</w>
sal ar</w>
physi cally</w>
n est</w>
mate matik</w>
malar dan</w>
lendiri r</w>
görül düğü</w>
b ra</w>
aşağ ıdaki</w>
açık lıyor</w>
M om</w>
9 6</w>
t our</w>
profes yonel</w>
istiy ordu</w>
invol ve</w>
in diri
id ly</w>
et mey
diğer leri</w>
c am</w>
başkan lığı</w>
Yak ın</w>
Jovan oviç</w>
Fil ist
İtal yan</w>
uç ur
transi tion</w>
thodo x</w>
revol ution</w>
magn itude</w>
ihtiy ar</w>
ge mi</w>
challen ging</w>
aç ısı</w>
Wel come</w>
TE R</w>
T each</w>
Ser vice</w>
Medi terranean</w>
Böl ge</w>
ş una</w>
ünüz ü</w>
çok tan</w>
ye mek
neden ini</w>
man age</w>
gay ret</w>
establish ing</w>
deta il</w>
aç lık</w>
Whe ther</w>
Th ou</w>
La ura</w>
G ul</w>
Ec clesias
E BR
Demok ras
An dre
thro wn</w>
stand art</w>
olan ak
en dly</w>
doğ a</w>
ar ke
U s</w>
Kah kaha</w>
Gal ile
E T</w>
çap ındaki</w>
wat ch
tüm üyle</w>
tabern acle</w>
restor e</w>
maz dı</w>
lim its</w>
gör mez
far mers</w>
S um
Ge o
D iv
Bes ides</w>
ç ılar</w>
tri c</w>
televiz yon
sorumlul uğu</w>
resurrec ted</w>
listen ed</w>
kurum ları</w>
iste diğiniz</w>
fi x</w>
bar ışı</w>
Pros ecut
Har ika</w>
Fir av
ses le</w>
re ign</w>
p id</w>
no on</w>
mış lar</w>
göz leri</w>
esti mate</w>
discip le</w>
cho os
bur ad
ağ acı</w>
al ırken</w>
acağ ımı</w>
Sor un</w>
R ek
No bel</w>
N as
En viron
En largement</w>
B an</w>
İh tiy
ürün leri</w>
çar par
vak ti</w>
to x
te ams</w>
konuş masında</w>
ice anu</w>
deli gh
ay na</w>
alan ları</w>
RAB Bİ
R I</w>
K ov
Gün dem</w>
şah ane</w>
ör le</w>
çalış ın</w>
çalış an
we aring</w>
vehic les</w>
t ;</w>
nite likleri</w>
minnet tar
iy e
hik â
görün üyordu</w>
gr ant</w>
HO V
F ree</w>
Econom ic</w>
20 17</w>
- S
v ow
tuğ unu</w>
ta xes</w>
sm oke</w>
proj enin</w>
olay ların</w>
olacağ ına</w>
obe dience</w>
ip tal</w>
de partment</w>
ak ti
ad li</w>
Tar iceanu</w>
T aş
Sch en
Dan im
Cen ter</w>
ülkeler den</w>
tri bes</w>
t ün
olay ın</w>
nüfus un</w>
n omin
kil ise</w>
anal iz</w>
am ent</w>
T ro
T ell</w>
No thing</w>
I re
Coun try</w>
Bir likte</w>
B lur
yarg ıla
w estern</w>
up per</w>
specif ically</w>
sok ağa</w>
s unu</w>
rati o</w>
kula k
kiş iyle</w>
istin es</w>
gı d
faaliyet leri</w>
ebil eceği</w>
dergis inin</w>
bal ığı</w>
a tion
Yetkil iler</w>
Muh temelen</w>
H ris
Gr and</w>
8 6</w>
ye bilirsiniz</w>
str ongly</w>
stat üs
re alistic</w>
mal ısın</w>
işle mi</w>
con su
bro ad</w>
başlang ıc
b o</w>
b inden</w>
ati k</w>
ar dian</w>
ama m</w>
Tech nolo
Swe den</w>
Phil istines</w>
Govern ment</w>
Brit anya</w>
ümüz ün</w>
çalış tığı</w>
wick edness</w>
ter min
sin deki</w>
proc esses</w>
percen tage</w>
el ement</w>
deney im</w>
c ue</w>
at mak</w>
ag an</w>
Tab i</w>
P ir
Os man
HD Z</w>
F ul
EBR D</w>
E in
sel y</w>
ini qu
güç leri</w>
gaze tesinin</w>
fi xed</w>
dev ir
cra ft</w>
bas tır
ar gue</w>
anla dım</w>
Mark os</w>
Ken dini</w>
C in
A gri
9 -
4 ,000</w>
3 &apos;e</w>
ou los</w>
n den</w>
iki pe
eceğ imi</w>
com mon
cli ents</w>
buy ing</w>
ay ing</w>
D O</w>
B öy
A V
la dy</w>
fin ans</w>
d inin</w>
ci ç</w>
af ford</w>
Ire land</w>
Har un</w>
Glo bal</w>
ölüm ünden</w>
kan un</w>
compon ent</w>
R ob
Micros oft</w>
K ris
Gre eks</w>
sev gili</w>
princ es</w>
ov o</w>
kullanıl ır</w>
kriz i</w>
konu ları</w>
inf lation</w>
in struction</w>
head quarters</w>
e ase</w>
ay ağa</w>
analy sts</w>
al er
adop t</w>
T im</w>
N ations</w>
Değ il</w>
7 7</w>
yap maktan</w>
vis u
uni versities</w>
typ ical</w>
tre mend
th ren</w>
soh bet
represen ting</w>
plan lıyor</w>
on ur</w>
iğ e</w>
gerek mez</w>
contribu ted</w>
cen ts</w>
Uyuştur ucu</w>
Ste ph
Blur b</w>
Ar men
yürek ten</w>
ul us</w>
sır al
söyle dik
sel ected</w>
se min
savaş ı</w>
man zar
lo y
ha di</w>
ev iden
equ ations</w>
dev ices</w>
ces ur</w>
Par vanov</w>
199 4</w>
ılac ağı</w>
yaşad ıkları</w>
put per
ma x
di tionally</w>
bir th
al es</w>
J en
Alt ın</w>
yas ak</w>
ti tre
sil ent</w>
sel fish</w>
oluştur ur</w>
ol u
mut l
men sup
k imi</w>
insan i</w>
in formed</w>
electr ons</w>
davranış ları</w>
cas h</w>
bi ological</w>
bi m</w>
alt ını</w>
Schen gen</w>
ö te
tık larını</w>
sm oking</w>
siz ler</w>
s and</w>
ri mi</w>
qu es</w>
pray ing</w>
perfec tly</w>
n eleri</w>
le -
koc ası</w>
hizmetç ileri</w>
düş man</w>
den en</w>
c ras
baz ılarını</w>
bakan ları</w>
Say ın</w>
Pak istan</w>
Karad aku</w>
Ecclesias tes</w>
üre timi</w>
çalış ır</w>
upri ght</w>
tığ ımızda</w>
tes ted</w>
tedbir ler</w>
sahip ti</w>
ol gun</w>
obe dient</w>
mül k</w>
life time</w>
kendin ize</w>
kağ ıt</w>
hücre leri</w>
güc ünün</w>
fak ir</w>
direc ek</w>
comm it</w>
at ür
alk ol</w>
Ye me
- up</w>
öldür dü</w>
ver ip</w>
var d</w>
to do
six th</w>
sev inc
pre ached</w>
ok um
lik ewise</w>
li qu
hizmet ine</w>
han ded</w>
ha d
en trepren
du ties</w>
d ress</w>
c lear
ben de</w>
be gun</w>
at ri
approxima tely</w>
In dian</w>
Hal a</w>
Finlan diya</w>
Birleş miş</w>
ý z</w>
uygu lay
tü ler</w>
tas te</w>
sur ance</w>
siz lere</w>
sistem ini</w>
os y
iş areti</w>
imkâ n
hizmet leri</w>
fri endly</w>
for giveness</w>
exp ects</w>
edi tion</w>
duy mak</w>
dist ress</w>
def en
d ak</w>
awar eness</w>
ar ose</w>
Yıl dı
Wh er
P M
F ig
A M</w>
şek il</w>
zor la</w>
z eki</w>
uyg un
si h
santr al
ple dged</w>
olur lar</w>
ma gic</w>
işbir liğinin</w>
im posed</w>
getir meye</w>
den iyor</w>
cin si
bir şeyler</w>
advan ced</w>
Su preme</w>
Mal iye</w>
Laj cak</w>
İ ster</w>
yanl ış
söy ler
ol alım</w>
ma ye</w>
lo gar
k ro
is yan
impres sed</w>
edec eğ
ed inci</w>
dığ ının</w>
dah il
architec ture</w>
an g</w>
akade mik</w>
ahlak sal</w>
ad ımı</w>
Tel ev
11 th</w>
ver g
stra tions</w>
reve als</w>
publish ers</w>
promin ent</w>
pion eers</w>
per pet
mümk ün
immedi ate</w>
en cing</w>
ek liyor</w>
ch es
c ý</w>
ayr ımc
as semb
L and</w>
çalış malar</w>
tik lerini</w>
suz luk</w>
sli de</w>
reli able</w>
pri or</w>
kö p
kut sal
kos in
kendi siyle</w>
im izle</w>
il mesini</w>
habi ts</w>
e u
co- ordin
an ces
Z en
Olimp iyat</w>
Doğ al</w>
Belç ika</w>
Alek san
yanl ısı</w>
ra p</w>
pros ecution</w>
om b</w>
ola s</w>
me diler</w>
lis te</w>
key s</w>
kat lan
isti fa</w>
instruc tions</w>
inci dents</w>
giri p</w>
diploma t</w>
dec ei
al dıkları</w>
Par ents</w>
Araştır ma</w>
uz a</w>
r ural</w>
pos session</w>
per s
fin ds</w>
expec tations</w>
de pos
contribu tion</w>
child hood</w>
c ilerin</w>
altern atif</w>
Or thodox</w>
ı larında</w>
v acc
ti e</w>
ma d</w>
fil ms</w>
bırak mak</w>
Telek om</w>
S ever
S P</w>
Par a</w>
Kan unu</w>
I van</w>
Baş ar
9 th</w>
üm it
ödü lü</w>
Ü N
yanıt ladı</w>
ulus lar</w>
tarih leri</w>
t ough</w>
sing ing</w>
ser i</w>
ri de</w>
re sh
re ak
pre viously</w>
lerim izle</w>
kal i
hos ts</w>
finan se</w>
etmen i</w>
e tik
den k</w>
deman ded</w>
ch amp
aç ıyor</w>
Phil ip</w>
ver dikleri</w>
uy u
tat min</w>
re put
pen gu
ot omo
mot or</w>
l oud</w>
il mesine</w>
hor ses</w>
h ev
fikir ler</w>
W ol
S iy
E den</w>
C es
200 4
16 th</w>
- 2</w>
u ted</w>
sal es</w>
resul ted</w>
madal ya</w>
lılığ ını</w>
im ine</w>
hazır lık</w>
düş üş</w>
de al
ch ro
b y
D ir
Bo dy</w>
9 8</w>
çek in
regar dless</w>
ran dom</w>
pol isi</w>
mo z
mez ar
kö pek
iz lemek</w>
g re</w>
di gn
Z ey
Y on
Mü dür
L am
yap ısı</w>
swit ch</w>
su gar</w>
der i</w>
bölüm ünde</w>
alt yapı</w>
Y anl
Pro tec
H E
Eli zab
Ciz re</w>
İsviç re</w>
yıl dön
tutuk lu</w>
t üy
sır t
sun ul
strength ened</w>
sh if
sey re
s arı</w>
phot os</w>
nat ur
iş sizlik</w>
invol vement</w>
exp and</w>
cut ting</w>
c ler
av oi
ar ise</w>
an ik</w>
al ana</w>
S ul
L oc
Jav ier</w>
Gru bu</w>
Eur o-
ınt ılı</w>
vir üs
tip e</w>
offic ially</w>
la maları</w>
kiş iliğ
kay dı</w>
kadın lara</w>
iç ki</w>
ik ten</w>
ex t
evren sel</w>
d un
ate dly</w>
S ağ</w>
Foot notes</w>
şirket ler</w>
ç ür
va iz</w>
sh ame</w>
pra ised</w>
onay ladı</w>
olmas ın</w>
in stal
bir e</w>
biliyor dum</w>
başlangı çta</w>
baş ını</w>
ap parently</w>
ac iç</w>
ab en</w>
Yaratıc ımız</w>
Mar din</w>
Dur um</w>
ö mr
yarat ıcı</w>
p es</w>
oy mağ
out look</w>
ol ars</w>
mez di</w>
etme di</w>
e mek</w>
e ag
duyur ma</w>
clas si
c üsü</w>
N azi</w>
İ LA
yıl ındaki</w>
ula tions</w>
terbi ye</w>
s ünü</w>
r in</w>
ort amı</w>
og lu</w>
lik lere</w>
intelli gent</w>
görev lendir
gather ing</w>
divor ce</w>
dengel i</w>
bre ath</w>
bil miyoruz</w>
al ay</w>
Tanr ımız</w>
RABBİ N</w>
I M</w>
F I
6 9</w>
yüz üne</w>
son gs</w>
par mak
new ly</w>
mid -
mak er</w>
kan dır
ignor e</w>
frequ ently</w>
en for
eg zer
duy an</w>
da i
başlay alım</w>
Sırp ların</w>
I van
Bi g</w>
ön ündeki</w>
çek tiği</w>
yeme ği</w>
sürec in</w>
s ity</w>
rou te</w>
res ist</w>
ren kli</w>
pros ed
kural ları</w>
indic tment</w>
il gisi</w>
hakk ını</w>
görül ü</w>
g ory</w>
comple x
Musli ms</w>
Mos cow</w>
1 30</w>
yap rak
uzman lar</w>
utan ç</w>
top ic</w>
mahke mesi</w>
korun ması</w>
ik isinin</w>
gram s</w>
gerçekleştir ilen</w>
S F</w>
Feder ation</w>
Bib li
. org</w>
üyor sun</w>
çöz ül
çok ları</w>
yar arı</w>
tra fik</w>
s me
r üy
produc tive</w>
mü thiş</w>
kat liam
hik met
düş üş
diso be
din lemek</w>
der gisi</w>
cre ativity</w>
cou p</w>
at lı</w>
Tek vin</w>
Mil o</w>
Kan un
Ein stein</w>
Aha b</w>
yapıl ıyor</w>
y ağı</w>
ver medi</w>
tin deki</w>
s --</w>
reflec ted</w>
proble mi</w>
ol un
offic es</w>
oci de</w>
num ber
mission aries</w>
gra ve</w>
ger eği</w>
for um</w>
civil ians</w>
c az
T able</w>
Pat ri
Fran k</w>
E sk
D e</w>
B P</w>
A g
19 50</w>
zul üm</w>
say ının</w>
pos sibilities</w>
o x</w>
grad ually</w>
dist ant</w>
değişik likleri</w>
abil en</w>
Tra de</w>
Nov i</w>
Mar tha</w>
Jour nal</w>
Ş İ
Ş id
yaptığ ınız</w>
vari able</w>
te la
si mu
san ti
pain ful</w>
n esses</w>
ma mıştı</w>
kazan an</w>
k lin
hatır lıyorum</w>
geliştir me</w>
effici ency</w>
bom b</w>
as ks</w>
V es
T y
P AS
Kom itesi</w>
5 0,000</w>
veril miş</w>
tak ımı</w>
st e</w>
soy kır
sev gisini</w>
sa tions</w>
laş mış</w>
kö r</w>
iy isini</w>
görün ür</w>
ge ments</w>
değiş imi</w>
bil gin
ad mon
Kan un</w>
I li
Dut ch</w>
öfkel en
çalış tığını</w>
Ç ar
wh enever</w>
sur ing</w>
ses leri</w>
man evi</w>
kullan ım</w>
hor se</w>
har f
gaz ete</w>
com ment</w>
bil inc
an dan</w>
abil mesi</w>
U. S</w>
S un</w>
S tipe</w>
Georgi ev</w>
F ive</w>
Büyük elçisi</w>
yaklaş ım</w>
sözc ük</w>
sağla ma</w>
say ılar</w>
sa ving</w>
pi ans</w>
lil ere</w>
koalis yon</w>
ik en</w>
gres sive</w>
gra in</w>
gazetec ilere</w>
app ing</w>
acağ ından</w>
ab et</w>
San at</w>
Philip pians</w>
Moder n</w>
M E</w>
Kat ıl
Hav a</w>
H R</w>
C L
örne ğini</w>
yon a</w>
uygula mak</w>
todo ks</w>
si gh
se where</w>
pun ishment</w>
opi oid</w>
kay gı
explan ation</w>
dil miş</w>
den ilen</w>
ci ğ
bran ches</w>
Z ar
Yen iden</w>
Pho to</w>
Joh n
Fa ith</w>
&apos;n i</w>
z en</w>
your s</w>
uni versal</w>
toplant ıda</w>
soru lara</w>
legi ti
iş çi</w>
ik isini</w>
i tem
hisset tim</w>
hep sinin</w>
fe ars</w>
enti tled</w>
dis coura
boy n
bab amın</w>
at us</w>
amaz sınız</w>
Jour n
B on
ıy ız</w>
üyeliğ ine</w>
w rites</w>
vic tim</w>
su peri
spon sor
so -
sin üs</w>
sh op
röpor taj
r oughly</w>
politi kası</w>
olacağ ım</w>
obo am</w>
kal dığı</w>
kaf a</w>
ir t</w>
gir mek</w>
eng aged</w>
dikkat ini</w>
an ic</w>
Val en
Olimp iyat
öğü dün
yakın larındaki</w>
repe atedly</w>
plan lanan</w>
out standing</w>
obli gation</w>
k ılan</w>
ge o
dene tim
birbir lerini</w>
adj ust
U p</w>
Or todoks</w>
On dan</w>
Do ç</w>
İli ş
yaz mak</w>
s culp
proper ties</w>
kır ıl
k ol</w>
iler ide</w>
har dly</w>
eas tern</w>
din a</w>
cl ou
cha irman</w>
b low</w>
Z ir
T am
Na omi</w>
Da ily</w>
ımız daki</w>
çiç ek</w>
vur g
tw enty-
sion ate</w>
s now</w>
remin ded</w>
overse er</w>
obj ec
kal ı</w>
hus bands</w>
hisse de
gün üm</w>
göz le</w>
charac ters</w>
Seç im</w>
J as
12 4
yağ mur
w ip
tr ends</w>
taraf ın</w>
sınır ı</w>
söz lerinin</w>
söylen iyor</w>
söy le</w>
sym bol</w>
s ön
ruh unun</w>
müş tür</w>
mom en
göz e
b ayan</w>
associ ate</w>
apart ment</w>
Be th
yol lar</w>
yap ımı</w>
to --</w>
ri vers</w>
mom ents</w>
in y</w>
hazır lanan</w>
ha bit</w>
götür dü</w>
gol den</w>
feder al</w>
dev ral
cre ates</w>
compon ents</w>
bil diği</w>
an ese</w>
With in</w>
Kilis esi</w>
Dah ası</w>
19 80</w>
İbade t
çık mış</w>
yardım c
t ack
ris i</w>
rela te</w>
prote sts</w>
m ız
liy or
lay er</w>
j ump</w>
it an</w>
inten se</w>
inno cent</w>
hor iz
good ness</w>
dre ams</w>
ayak kab
ad voc
Har ry</w>
tor ture</w>
op ens</w>
neighbor hood</w>
le ep</w>
iyor lardı</w>
instr uments</w>
f ed</w>
crimin als</w>
Phar is
Dip notlar</w>
İ man
öğret ti</w>
tra its</w>
s os
perf ection</w>
inven ted</w>
imkan sız</w>
görev lisi</w>
er -
em li</w>
discrimin ation</w>
baş bakan</w>
bak ıp</w>
Gel ecek</w>
C os
Biz ler</w>
öncel ik</w>
çalış ıyorlar</w>
ulti mately</w>
te tik
sp ake</w>
sağ da</w>
r ats</w>
ob tained</w>
o z</w>
nüfus unun</w>
net e</w>
kurum sal</w>
gün dem
exten d</w>
düşün me</w>
demon strated</w>
deep er</w>
cre ature</w>
bour g</w>
bil lions</w>
auth or</w>
ar chae
An tar
öl üme</w>
çalış arak</w>
Önc eki</w>
tra ge
ter si</w>
ri dic
op tions</w>
less ly</w>
kaydedil en</w>
kal may
inv ite</w>
il li
histor ic</w>
gide lim</w>
fela ket</w>
fayd alan
diy alog</w>
disa gre
d or</w>
at ılmış</w>
am end
K y
H ag
transpor tation</w>
s mo
per su
oran ları</w>
lığ ıyla</w>
koy un
harm ful</w>
git tiler</w>
gerek tir
explor e</w>
et c</w>
consci ousness</w>
b ini</w>
arz u</w>
Ok uy
N ok
In dependent</w>
G ir
Ara p</w>
ý na</w>
özel likleri</w>
y ası</w>
won dered</w>
uy arı</w>
tur a</w>
sorun lara</w>
s cr
r al</w>
os iste
ma t</w>
m ısın</w>
katıl ıyor</w>
econom ics</w>
dal ga</w>
bul ma</w>
F ile</w>
D us
D ad</w>
öldürül dü</w>
Örne k</w>
uyor lardı</w>
rapor unda</w>
n ative</w>
mas sac
imz a</w>
her kes
her itage</w>
de eds</w>
ap ers</w>
R um
Ga mes</w>
C .</w>
Buc kovski</w>
B ür
7 1</w>
z al
yan ından</w>
the astern</w>
teh like</w>
te les
taraf lı</w>
stu pid</w>
onay ını</w>
li ra</w>
dimen sional</w>
bil miyor</w>
bağ ış</w>
amay ız</w>
adequ ate</w>
S vet
N eler</w>
E le
şef kat</w>
uk la</w>
peş inde</w>
item s</w>
gra f
comp et
com prehen
chan nel</w>
bula bilirsiniz</w>
b att
Siyas i</w>
Ok yan
M r
C K</w>
Ak ş
İs hak</w>
val ley</w>
v oting</w>
tan ıklık</w>
su lar</w>
son larında</w>
sen gers</w>
mar vel
len diren</w>
lab our</w>
kıy asla</w>
karar ın</w>
k ne
id in</w>
görüş meler</w>
gibi ydi</w>
der inden</w>
as sa
ar re
türe v
top lay
sp lit</w>
seç ti</w>
ruh unu</w>
rej ect</w>
recor ds</w>
m ıyoruz</w>
ly wood</w>
ler sek</w>
far m</w>
er ror</w>
an lık</w>
Z iy
Res ul
Profes ör</w>
O d
Na than</w>
M H
Commun ity</w>
Clin ton</w>
Al tı</w>
124 ;</w>
&# 124;</w>
şüph esiz</w>
ümi di</w>
y em
trans ferred</w>
scor e</w>
proph es
okuy oruz</w>
me tal
kul u</w>
ih raç</w>
hak im</w>
ger il
beklen t
Liber al</w>
K re
Gu ardian</w>
Fun d</w>
öğrenc ilerin</w>
tow ns</w>
si ck
mis sions</w>
lan mıştır</w>
kal maya</w>
guaran tee</w>
flow ers</w>
econom ies</w>
dama ged</w>
co me
Ken t
K ri
şimdi ki</w>
Şahit lerin</w>
öğren ebiliriz</w>
çab alarını</w>
yıldı z</w>
yakın larında</w>
y ordu</w>
tam gün</w>
tale bi</w>
sunuz dur</w>
st uck</w>
sin ned</w>
mal iyeti</w>
iş li</w>
beklen medik</w>
ar ın
W all</w>
Kor ea</w>
Aç ık</w>
İ H
yü ce</w>
yiy ip</w>
um u
tor al</w>
til es</w>
set tle
satis fy</w>
poz isyon
meaning ful</w>
kapas ite
kal ması</w>
hat red</w>
haber ler</w>
di o</w>
con cep
Jap anese</w>
D ön
Belgi um</w>
7 9</w>
x ing</w>
war ming</w>
savaş ın</w>
lau gh
j ko</w>
hat t
düny adan</w>
desp er
biri miz</w>
belirtil iyor</w>
UN ES
P ark
Mart ti</w>
Hiz met</w>
İl gili</w>
ç ılık</w>
yak ıt</w>
siz liği</w>
poss ess</w>
ol du
iy isi</w>
geç mek</w>
evalu ate</w>
düşün üyoruz</w>
disc overy</w>
bre thren</w>
başla dığı</w>
alis tler</w>
Steph en</w>
N ote</w>
Mos kova</w>
Mem orial</w>
9 7</w>
5 m</w>
ş ansı</w>
İLA Hİ
çiğ ne
u be</w>
söz de</w>
say ıl
ref use</w>
peygamber in</w>
kır sal</w>
istik r
impro vement</w>
gel in</w>
estima tes</w>
ek seni</w>
ebev eyn
açık lay
at tract</w>
ag o
San ki</w>
R eligi
Hiz k
İLAHİ LER</w>
ücre t</w>
refer ring</w>
re pro
pro found</w>
obst acles</w>
mesa fe</w>
düşün dü</w>
de served</w>
ch en</w>
anlam ını</w>
anah tar
amoun ts</w>
SON GS</w>
In iti
F ut
A .
18 th</w>
ö y</w>
yas ağı</w>
yarat ıc
yap manız</w>
sevg iyi</w>
rüz gar</w>
qual ified</w>
pollu tion</w>
olabil eceği</w>
numer ator</w>
lar ız</w>
ism inin</w>
göster ilen</w>
f lu</w>
f ishing</w>
elek tron</w>
e di</w>
den in</w>
P ut</w>
Lik ewise</w>
Et kin
9 00</w>
8 2</w>
14 th</w>
İsrailoğul larının</w>
ý cý</w>
ölüm cül</w>
ç ığ
yansı tan</w>
uç ak</w>
uy um
toplant ısı</w>
the me</w>
sü s
sonuç ta</w>
sistem leri</w>
pop ü
ok un
multip lying</w>
m izin</w>
ha z</w>
git meye</w>
gen lik</w>
duygu ları</w>
diş i</w>
consider able</w>
collec t</w>
bra ins</w>
bey nin</w>
Pe oples</w>
LER İ</w>
Isla m</w>
A -
ılabil ecek</w>
öðren im</w>
yıl larca</w>
yaz ayım</w>
tal eb
suppor ts</w>
sev diği</w>
ren dered</w>
re el</w>
qu it</w>
politi k
play s</w>
oz one</w>
di str
car es</w>
araştır malar</w>
Stu dies</w>
Mu ha
LAR I</w>
D ağı</w>
Avrup a-
&apos; yu</w>
şey di</w>
ık ların</w>
yar d</w>
where as</w>
us uyla</w>
un known</w>
sey ir
sen -
re l</w>
pre vention</w>
our ce</w>
ola bilirdi</w>
o th
müzaker eleri</w>
kur al</w>
indic tees</w>
incel en
gi diyor
fashi on</w>
eder sek</w>
değil se</w>
büyüy en</w>
arri ve</w>
K aya</w>
B A
An na</w>
yap acağını</w>
ver en
up s</w>
spe aker</w>
sh ell</w>
pu an</w>
preser ve</w>
mag ne
kamp an
f ot
eden lerin</w>
e .</w>
dür üst
def end</w>
de tention</w>
de lay
bes le
al l
Yaln ızca</w>
Tal at</w>
On lardan</w>
M y
Kız ıl
D Y</w>
Ar şi
2. 5</w>
yar ın</w>
t oms</w>
survi val</w>
sub mit</w>
res cue</w>
p uzz
ot ori
kullanıl ıyor</w>
iş leme</w>
iş inin</w>
hit aben</w>
der son</w>
der hal</w>
den tly</w>
am ıyorum</w>
UNES CO</w>
Tu be</w>
Su rely</w>
S and
Er tesi</w>
Düny ada</w>
C hal
ış tı</w>
ü mid
temp tation</w>
t um
ne vi</w>
ler idir</w>
iş leyen</w>
iste dikleri</w>
has n</w>
göster ecek</w>
gör düler</w>
enti ally</w>
Har vard</w>
G abri
7 6</w>
ş eff
özel leştir
Öl üm
topla mı</w>
söyleye biliriz</w>
supp lies</w>
ra fa</w>
olacak sınız</w>
mu ame
loc ks</w>
is lands</w>
in qu
haber lere</w>
gen ocide</w>
gel in
etme den</w>
d ating</w>
command ment</w>
accomp lished</w>
Y ür
V I
Düz ey</w>
Dem oc
D ış</w>
B ak</w>
scenar io</w>
part iler</w>
os ki</w>
ney s</w>
mez se</w>
le zz
illu strate</w>
huz ur</w>
gün lerinde</w>
gi diyoruz</w>
geç ip</w>
e h</w>
duy dukları</w>
beş inci</w>
ayn ısını</w>
alan larında</w>
abileceğ iniz</w>
R ama</w>
P ra
Euro- Atlantic</w>
Emp ire</w>
E p
B ölüm</w>
B les
5 &apos;
üz ül
z ic</w>
win ning</w>
uzman ı</w>
uyor sun</w>
phenomen on</w>
part inin</w>
o ol</w>
mu kaddes</w>
malar ında</w>
malar la</w>
kur u</w>
has ar</w>
git tiğini</w>
fla t</w>
bir inden</w>
b inin</w>
ac tors</w>
Re bek
Mu hal
H ü
Govern or</w>
5 &apos;te</w>
200 8
çağ daş</w>
yüre ğini</w>
pic ked</w>
pen al
pas sion</w>
origin ally</w>
n els</w>
l j
f ought</w>
dığ ınızı</w>
doğrult usunda</w>
Z ek
Portek iz</w>
Constitu tional</w>
3 &apos;
çıkar ıl
çevre sel</w>
yol una</w>
var lık</w>
thre sh
tek er
some what</w>
shar p</w>
re mind</w>
pr inted</w>
mahke meye</w>
lu ların</w>
la ted</w>
kul luk</w>
iğ inden</w>
influ enced</w>
görev den</w>
g t;</w>
dist ingu
den ebilir</w>
bölün müş</w>
bildir iliyor</w>
believ ing</w>
bak ım</w>
ağ ız</w>
at tor
Yaz ılara</w>
On unla</w>
Mücade le</w>
Ger ek
G O</w>
Bir incisi</w>
A sa</w>
13 th</w>
& gt;</w>
tr en
t ag
sürec ine</w>
sürdür ülebilir</w>
suspen ded</w>
se ized</w>
plan la
organis ms</w>
opin ions</w>
olma dığına</w>
n ant</w>
mü dür
me mi</w>
ma tion</w>
m ısınız</w>
lar lar</w>
kay ıp</w>
j um
huk uki</w>
har mon
har ca
düşün ces
dön en</w>
doc tr
değiş en</w>
bon ds</w>
barın dır
ay eti</w>
New ton</w>
Hezek iah</w>
Ha iti</w>
F A
&apos; dir</w>
İh ti
www. jw.org</w>
st asy</w>
parlamen to
p lot</w>
lık lara</w>
istiyor sak</w>
dri ver</w>
chur ches</w>
ama dan</w>
acti vis
Spec ial</w>
L earn</w>
D or
ziy areti</w>
y n</w>
tu lar</w>
sur vey
st ations</w>
ser maye</w>
sal on
ro yal</w>
res istance</w>
prophec ies</w>
nö bet
lider liğindeki</w>
kim ler</w>
iz z
idar ity</w>
gr ass</w>
fir mly</w>
ev lilik
etk isini</w>
ebil mek</w>
d x</w>
bir biriyle</w>
açıkla ması</w>
an la</w>
am in
al ıyorlar</w>
ahla ki</w>
Mo ab</w>
M en</w>
L a</w>
In te
Gö rev
E lis
D oc
Ban ka</w>
İ sanın</w>
un usual</w>
tremend ous</w>
te bil
sp ouse</w>
robot s</w>
recogn ised</w>
kil i</w>
kardeş lerine</w>
go s</w>
elimin ate</w>
elec tron</w>
durum una</w>
din len
de lay</w>
custom er</w>
cevab ını</w>
c ehen
baktığ ımızda</w>
aç ar</w>
at ör
Mes iç</w>
7 4</w>
ö lec
tif ying</w>
tarz ını</w>
sonuç larını</w>
radi cal</w>
pro -
lar ımızla</w>
kap ıyı</w>
initi ally</w>
hun gry</w>
fayd alı</w>
et inin</w>
bağ lılık</w>
anlaş mayı</w>
ak k
V an
ST K</w>
Organ ization</w>
Dün dar</w>
ıs rar
ı larıyla</w>
yaş ına</w>
y ken</w>
so- called</w>
ri ca</w>
laboratu var
inş a
gi l</w>
fun ny</w>
fle e</w>
et miyor</w>
cul tures</w>
bla me</w>
bilg isi</w>
am ing</w>
Mut lu</w>
Ap ple</w>
Ak ıl
wor th
treas ure</w>
sorum lusu</w>
siyas et</w>
sc at
pul led</w>
pil ot</w>
philosoph y</w>
mode li</w>
mem bran
k al</w>
in ches</w>
el sewhere</w>
duk ça</w>
dep th</w>
cr ying</w>
baş larına</w>
al et</w>
U kra
Sosyal ist</w>
Şim ş
öl müş</w>
yap maları</w>
to ck</w>
motiv ated</w>
kurtu la
görmez den</w>
eğ imi</w>
ex ports</w>
el iler</w>
edil mesini</w>
den ied</w>
can av
bor c
belir siz</w>
at alar
agri cultural</w>
Y ur
R ug
N GO
F iz
Ağ ır</w>
Avrupa- Atlantik</w>
w are</w>
sun mak</w>
sanat çı</w>
run s</w>
refu ge</w>
qu ad
lý k</w>
lin ks</w>
kurum lar</w>
dign ity</w>
buyru k
benefic ial</w>
b ağ</w>
attac ked</w>
ar bi
alg ıla
P ot
Ord usu</w>
L os</w>
K üresel</w>
C op
öğren di</w>
y ığ
si de
sha dow</w>
pla k</w>
k eri</w>
k ade
ic y</w>
gerek siz</w>
fak tör
explos ion</w>
değiştir di</w>
büy üt
bro ch
bil gel
b ars</w>
ai ted</w>
Yaz ılarda</w>
W HA
V af
Cypri ots</w>
Ch ic
ç isi</w>
yaşan dı</w>
sec retary</w>
reput ation</w>
ran k</w>
p ace</w>
org ans</w>
lüt f
li p
la dık</w>
kes il
e ties</w>
cop ies</w>
col m</w>
ay acak</w>
aband oned</w>
U kr
A ris
த ு</w>
ör ün
ç em
Ül ke
yaş lan
yar al
vo ted</w>
ula c
tele phone</w>
tah ri
t z</w>
sektör ü</w>
p ound</w>
on ia</w>
konuş mayı</w>
kamp anya</w>
k ron
enter pris
en j
dön üş</w>
demon s</w>
char i
c ileri</w>
ad in
ac aba</w>
Ye di</w>
T om</w>
NGO s</w>
Demokras i</w>
Au thor
00 0
çevres inde</w>
yoksul luk</w>
te sting</w>
r ating</w>
plas tik</w>
pay ment</w>
men su
malar ından</w>
mak ine</w>
kral lık</w>
kem enin</w>
finan sal</w>
fikir leri</w>
doğal gaz</w>
communic ations</w>
be d
ba g</w>
ati vely</w>
Y ılmaz</w>
Danim arka</w>
20 ,000</w>
199 2-
uz anan</w>
toplul uk</w>
sek s</w>
sağlay abilir</w>
remember ed</w>
recon cil
re in
r üş
n ab
hi p
gu lar</w>
giriş imi</w>
gerçekleş mesi</w>
gerek tiren</w>
gel erek</w>
ettik lerini</w>
ch o</w>
c ılık</w>
bri ef
bak ıyor</w>
at ların</w>
ak ar
accor dance</w>
Yun us</w>
W r
Re aders</w>
Peter sen</w>
H es
C inci
Ü st
ze al</w>
wat ched</w>
ver iyorum</w>
tas yon</w>
sözc ük
stor m</w>
s wer</w>
rüz gâ
me on</w>
la tions</w>
kin s</w>
hakik ate</w>
güven c
görür üz</w>
f old</w>
do la
b ay</w>
Teknolo ji</w>
S ol</w>
P res
Mal colm</w>
An swer</w>
ğ u</w>
öğren meye</w>
öğren me</w>
wi dow</w>
ven ture</w>
tutum unu</w>
tar z</w>
söyle diklerini</w>
ser best
sch e</w>
ru lers</w>
plan a</w>
parç aları</w>
minis ter
mil li</w>
kayn ağ
kardeş lerin</w>
h um</w>
giriş im</w>
gerek se</w>
dışar ıda</w>
duygu lar</w>
cid diy
cema ate</w>
can cel
ba þ
WH O</w>
V M
Sim on</w>
D ju
Cinci ç</w>
Boğ az
Başlan gıç</w>
A H</w>
ız dan</w>
tak v
stran ger</w>
oluştur duğu</w>
nokt ayı</w>
lar y</w>
kork usu</w>
istatis tik</w>
görül ür</w>
f inger</w>
en gine</w>
ec osy
differ ently</w>
deman ding</w>
c ık</w>
You Tube</w>
Y ok</w>
S ing
S N
Portu gal</w>
E P</w>
B U</w>
İhti yar
Öl üm</w>
sil ence</w>
sh ops</w>
r ors</w>
particip ating</w>
oper asyon</w>
kazan ç</w>
hor ri
graph s</w>
geleceğ e</w>
discre et</w>
bi yle</w>
at ık</w>
acknowle dged</w>
Stu dy</w>
P y
N ec
Jon ah</w>
öf ke</w>
was h</w>
vulner able</w>
san g</w>
ni hay
mus eum</w>
küç ül
gener ate</w>
duy unca</w>
der si</w>
Oh rid</w>
K ON
Gosp el</w>
Dju kan
C ris
Bil gis
Ay dın</w>
5 &apos;i</w>
yan ındaki</w>
t yle</w>
seçen ek</w>
reven ue</w>
quanti ty</w>
olmay abilir</w>
ol manız</w>
o ya</w>
lifes tyle</w>
lay ýcý</w>
kullan mayı</w>
insur ance</w>
execu tive</w>
el ev
diplo matik</w>
değer ler</w>
bas sy</w>
alt ından</w>
WHA T</w>
Rapor da</w>
Cev ap</w>
ş ans</w>
ölüm den</w>
tek n
st y</w>
r are</w>
profes sion
pr on
manif est</w>
luk ta</w>
in fin
hastalık lar</w>
göre biliriz</w>
gerek ecek</w>
el lerini</w>
din ner</w>
anla tır</w>
adop tion</w>
U.S .
Sy rian</w>
St ar</w>
H uk
EU -
B iy
uğ unun</w>
ses lendi</w>
sch olars</w>
p ür
le te</w>
kayg ılan
kalk ıp</w>
k ing
im parator
düşün üyorsunuz</w>
duy ul
dol gun</w>
d us
c us
açık lan
accompan ied</w>
Es ther</w>
C as
An drew</w>
19 60</w>
ு ம</w>
İn cele
yeryüz ü</w>
uğ una</w>
t as</w>
surpris ing</w>
per mission</w>
mer ci
ley elim</w>
kural lar</w>
iniqu ity</w>
hab ere</w>
g le</w>
fi ve
es rar</w>
earthqu ake</w>
cur ious</w>
biri mi</w>
benz eyen</w>
U R</w>
çek er</w>
zaman lı</w>
vie wing</w>
sti mu
sp an</w>
rap idly</w>
m- euro</w>
kardeş im</w>
in cil</w>
imagin ation</w>
igh t
hev es
deta iled</w>
belon gs</w>
An la
zor dur</w>
y s</w>
vi c</w>
ver ses</w>
u a</w>
sen- Petersen</w>
ro of</w>
rem ote</w>
rahat sız
rad yo</w>
pressu res</w>
muy uz</w>
kısm ının</w>
kuş kusuz</w>
kalkın ma</w>
kab ul
ih mal</w>
haf ız
haf tada</w>
fi dye</w>
endur ance</w>
edebil mek</w>
ebil iyor</w>
duyg u</w>
dev asa</w>
critic ism</w>
cemaat teki</w>
bahset tiğim</w>
bac ked</w>
air port</w>
Op en</w>
Olymp ics</w>
Mec lisi</w>
Jes sen-Petersen</w>
Is land</w>
B K</w>
ıs ır
ýk layýcý</w>
çalış tığım</w>
yeryüz üne</w>
ust a</w>
tar i
recogn ise</w>
r il
mi gration</w>
main taining</w>
lar sanız</w>
la ğ
kav uştur
kat kı</w>
kamu oy
et meyen</w>
de alt</w>
conv ince</w>
acc us
Yanl ış</w>
U C
T uğ
Se ol</w>
M oun
K now</w>
Ho ş
Col ossi
B eş
ın dak
yer inden</w>
tar gets</w>
p ig
os is</w>
or al</w>
on ing</w>
od ak</w>
mut ual</w>
me lisiniz</w>
geç erek</w>
fru its</w>
for gotten</w>
ep ide
düşün dük
blo g</w>
ayr ıldı</w>
attemp ts</w>
B lic</w>
Arşi v</w>
Al bert</w>
çarp ıcı</w>
tak lit</w>
sla ves</w>
sav cısı</w>
ra dikal</w>
mesaj ını</w>
may alım</w>
ler y</w>
kıl ıç
kah r
k um</w>
fe wer</w>
es cap
ek len
don an
complex ity</w>
cid diye</w>
anx ious</w>
Ste fan</w>
L in
H op
Ch ap
ölüm üne</w>
yenil ik
x i
t ress</w>
si vil
se p
regre t</w>
pro m</w>
ok ur
ko d
isola ted</w>
hak larını</w>
fail ing</w>
den ir</w>
ch est</w>
bil e
ass as
arran gements</w>
alt yap
O k</w>
O P
H K</w>
D jin
3 50</w>
yön ü</w>
tah ıl</w>
surr ounded</w>
sme ll</w>
si tesi</w>
sefer inde</w>
sağla maya</w>
rek lam
or ders</w>
molecu le</w>
lin ing</w>
i et</w>
hız ı</w>
getir me</w>
gen tly</w>
gen der</w>
geliş meler</w>
duk larını</w>
davranış lar</w>
d jic</w>
ch e</w>
U l
S ig
Rug ova</w>
Millet vekili</w>
Kur distan</w>
Ken an</w>
Feder asyonu</w>
Ar ab
şeh ri</w>
ý ţ
um ing</w>
ser p
sec tors</w>
savaş a</w>
repe ated</w>
os a
lik ed</w>
en largement</w>
ed iler</w>
d anı</w>
critic ised</w>
collec ted</w>
bro ther
Yaz ıları</w>
Du a</w>
Bu il
A Ç
vis ed</w>
söyley eyim</w>
re zer
prosper ity</w>
part nership</w>
o dus</w>
leg ally</w>
k üre
emis sions</w>
eceğ inizi</w>
dön gü
cur few</w>
cros sing</w>
corrup t</w>
bulun ması</w>
Müz esi</w>
Fran cis
Ef endim</w>
Dik kat</w>
İnsan ın</w>
çiz eyim</w>
y ut
ver e
sah n
ruh la</w>
in justice</w>
im moral</w>
ho tel</w>
gal ak
c lar
bab aların</w>
al ıyorum</w>
Politi cal</w>
M O
Djin djic</w>
As s
Alex and
öv ün
yatır ım
surr ounding</w>
standart larını</w>
mücadele de</w>
katıl ımc
kar i</w>
istiyor sun</w>
hizmet te</w>
güç lük
göz lerini</w>
gra fi</w>
ge dly</w>
fascin ating</w>
dra matic</w>
con ten
anti cip
ad oles
Z aten</w>
Lis ten</w>
Kuv vet
H em
C u
An sw
9 1</w>
yat an</w>
tür leri</w>
tür den</w>
tu z</w>
reform u</w>
po or
peti tion</w>
ow ners</w>
lef t-hand</w>
lands cape</w>
l ıyordu</w>
gire r</w>
er tesi</w>
ef san
doğ um
büyük tür</w>
başla dığını</w>
ash i</w>
ad ındaki</w>
J ose</w>
Fır at</w>
Bir bir
Acade my</w>
wat er
w ages</w>
vo ices</w>
ver eceğini</w>
trans form</w>
tedav isi</w>
tar la</w>
sız ca</w>
sa fe
person nel</w>
municip ality</w>
geçir me</w>
er se</w>
equ ity</w>
depen ding</w>
de af</w>
co in</w>
P I</w>
Colossi ans</w>
Ba ek</w>
B Y</w>
199 0&apos;
öğren dik
Ç T</w>
uyuştur uc
kur maya</w>
indic ted</w>
hidro jen</w>
gri ef</w>
ge yi</w>
elek tr
av i</w>
an tik</w>
V ER</w>
Regar ding</w>
Papandre ou</w>
Hen ry</w>
Has ani</w>
D am
İl gin
y os
wi desp
widesp read</w>
lov ers</w>
k red
i ent</w>
fic ial</w>
e aten</w>
distribu ted</w>
di et</w>
bağım lı</w>
Wh ite</w>
P SD</w>
Mes ic</w>
Kur tar
H ann
Geçmiş te</w>
çek iş
z u
ye biliriz</w>
yaz alım</w>
y ers</w>
tim izi</w>
sı ç
sol a</w>
seçim lerin</w>
resp ec
re write</w>
pol ls</w>
pek iş
mo bil
ha med</w>
fantas tic</w>
fac ility</w>
ev rim</w>
con cei
certain ty</w>
biliyor sun</w>
am ızı</w>
U K
Mov ement</w>
şidde te</w>
ülkeler inde</w>
yapıl dığı</w>
yal ar</w>
um arım</w>
ta ç</w>
say ıyı</w>
purch ase</w>
o lar</w>
le g</w>
law yer</w>
karşıla dı</w>
iman lı</w>
hous ing</w>
hayvan ları</w>
for eig
ey in</w>
ettik ten</w>
embar ras
col or
cli m
büyük lük
alışver iş</w>
U gan
T un
T est
Müs lü
La w
L ef
C up</w>
zor laştır
week end</w>
th in</w>
tanın an</w>
so ft</w>
pos t-
onay la
ner v
ma malı</w>
lar ımdan</w>
in st
hedef ler</w>
gri ev
fir ms</w>
ek me
collec tive</w>
büyük lüğ
am ine</w>
ak ça</w>
S ir</w>
Lev el</w>
LA Y
Karş ı</w>
CO 2</w>
çap ta</w>
yönel t
uz ay
sub stance</w>
su ik
represen tation</w>
lus ion</w>
l ileri</w>
haber ini</w>
gra vity</w>
edil miştir</w>
düzen lendi</w>
c el</w>
aydın lat
as ıdır</w>
Y av
Fotoğ raf</w>
Ara b</w>
öldür mek</w>
Ç öz
Ç oğ
yüz e</w>
yön e</w>
te ta</w>
re de
kab in
haber lerinde</w>
gr ace</w>
end or
düşünc eler
duy duğ
del ta</w>
bes lenme</w>
ay olu</w>
at örü</w>
at ar</w>
Sil ah
Pet ro
Mir oslav</w>
May or</w>
Kendi mi</w>
H osp
A m</w>
5 00
yüre k</w>
vat an
ti v</w>
tah ta</w>
symp toms</w>
sorun unun</w>
sor gula
shoul der</w>
re turning</w>
program ları</w>
pregn ant</w>
peac eke
p in
noktas ına</w>
man ager</w>
mahk um</w>
li can</w>
lay ık</w>
kendi sinden</w>
eviden tly</w>
electron ic</w>
ek sin</w>
disp la
blo cks</w>
alle gedly</w>
St abilisation</w>
H ede
B is
yaz abiliriz</w>
tanın mış</w>
sm ile</w>
scienti st</w>
res men</w>
politi kas
ot uz</w>
o o</w>
ith al
il ke</w>
harit a</w>
geç ecek</w>
do yur
boş a</w>
al mıştı</w>
Vak fı</w>
T etk
Stu dents</w>
R amaz
P R
O x
Kon fer
Jos ip
Düny aya</w>
Dic le</w>
Davut un</w>
Car la</w>
Aç ýklayýcý</w>
Abra m</w>
Ş ur
ö tesi</w>
yap mam</w>
uy dur
prom oting</w>
n ose</w>
kurtul mak</w>
is ms</w>
hâ kim</w>
el inin</w>
bula biliriz</w>
bir araya</w>
after noon</w>
ad mit</w>
T eh
S DP</w>
Mü j
Gide on</w>
C he
çocuğ a</w>
photo graph</w>
oğ raf
ov ac</w>
olo g</w>
lerim in</w>
ler ime</w>
kal dım</w>
görüş ünü</w>
gel diniz</w>
finan cing</w>
duy uyor</w>
cin sinden</w>
ci a</w>
birbir leriyle</w>
ak tan</w>
US A</w>
Resul lerin</w>
P ow
K up
C ek
C I
2 .</w>
Şahit leriyle</w>
ıs ı
ım daki</w>
yu v
yay ına</w>
yaralan dı</w>
susp ect</w>
short ly</w>
katıl dığı</w>
frac tion</w>
enth usi
eceğ in</w>
e able</w>
duyur mak</w>
ac knowledge</w>
P ass
EK N</w>
Deut er
A mos</w>
1992- 1995</w>
öz et
ur s</w>
soldi er</w>
sear ching</w>
s ler</w>
olmas ından</w>
momen tum</w>
min orities</w>
milyar larca</w>
il led</w>
güven de</w>
gi din</w>
gerçek leri</w>
düşünüyor dum</w>
bar at</w>
B og
vatandaş ların</w>
tut ar</w>
taraf ına</w>
süre li</w>
standart ları</w>
legis la
kısm ına</w>
ilişk ilerin</w>
g ap</w>
fr ame</w>
ez e</w>
düşün en</w>
diler im</w>
cez asına</w>
but ing</w>
ban kalar
bak ış
aç göz
an lardan</w>
Sever al</w>
Sab ah</w>
Gru p</w>
Dimit ro
Deuter onomy</w>
Baş kaları</w>
8 9</w>
övgü de</w>
z emin</w>
yol un</w>
yeryüz ünün</w>
two- day</w>
pus hing</w>
kes kin</w>
gerek ti</w>
ex isted</w>
ep ey</w>
b r</w>
att ached</w>
öyle dir</w>
ö p
tut uyor</w>
ste el</w>
san d
ref resh
par tisinin</w>
p lu
mil let</w>
laştır ma</w>
koru maya</w>
ekonom inin</w>
diğ ince</w>
Up on</w>
S ı
S wit
S tor
Hıristiyan ların</w>
H aş
G j
Fin land</w>
த ி
şart ları</w>
ver eceği</w>
th es
sus pic
sev diğim</w>
ra tional</w>
pos ta</w>
oran la</w>
l op
im tiy
gün düz</w>
et miştir</w>
ebil irim</w>
bu r</w>
birbirim ize</w>
açıkla maya</w>
VM RO
S is
N V</w>
Kad ınlar</w>
Blo om
yüre ği</w>
yap ıyorsun</w>
u tionary</w>
tic i</w>
tex ts</w>
ta til</w>
soci eties</w>
partic les</w>
olog lar</w>
ol muş
ol ana</w>
milletvekil leri</w>
lerim izde</w>
lat ter</w>
lar ımla</w>
it al
iste diler</w>
i dam</w>
haber lerde</w>
ha bit
gen tle
geliş mekte</w>
for mat
f il</w>
en na</w>
depen dence</w>
coup les</w>
connec tions</w>
condem ned</w>
başla ması</w>
a e
Zaman la</w>
Vi et
Kö t
Esk iden</w>
Boris ov</w>
1. 000</w>
çıkar ıp</w>
yoğun laş
nite lendir
mo tive</w>
kom ik</w>
it tir</w>
is imler</w>
in sects</w>
hav ada</w>
g overning</w>
g os
cap ture</w>
c ave</w>
att ığı</w>
at ma</w>
a ic</w>
Kor uma</w>
H ong</w>
çık ması</w>
zinc ir
um i</w>
sü per</w>
san al</w>
po p</w>
plan es</w>
piş ir
istatis tik
em ri</w>
clas ses</w>
bak ımından</w>
ac an</w>
Wor kers</w>
Ex odus</w>
Eli şa</w>
Cul tural</w>
8 8</w>
198 9</w>
İsrail li</w>
üç gen</w>
çarp tır
Öğret men
yav ru
yap masını</w>
se eds</w>
satis fying</w>
p om
nite lendirdi</w>
kin dly</w>
eğ imiz</w>
ahlak sızlık</w>
Y et
M ot
â r
ti fication</w>
tav ır</w>
tab lo</w>
sub si
plan ets</w>
particip ated</w>
lendir me</w>
iti raz</w>
inhabi ted</w>
hi ding</w>
gü ce</w>
gel mesini</w>
bil irim</w>
bas kın</w>
arran ged</w>
Ye ar</w>
Res mi</w>
R an
Den mark</w>
ülkeler ine</w>
yayın ladığı</w>
uyuştur ucu
ul uk</w>
te x</w>
pol l</w>
par mağ
oku maya</w>
mis af
liqu id</w>
l ot
kut la
ibar et</w>
günah kâr</w>
ex port</w>
es er</w>
dur up</w>
blo cked</w>
be ast</w>
bağımsız lığını</w>
aç mak</w>
an dı</w>
V u
Tı pkı</w>
R em
Nor veç</w>
Li brary</w>
Eph ra
Elizab eth</w>
C hair</w>
B A</w>
İnsan ları</w>
y ön</w>
y avr
wan na</w>
toplum una</w>
tarih inin</w>
protec ting</w>
p az
out ine</w>
m de</w>
ler inizin</w>
kö pek</w>
iz leyen</w>
im lerin</w>
gör üp</w>
git tik</w>
gel meden</w>
evol ved</w>
do gs</w>
d adır</w>
c king</w>
Ter sine</w>
T ony</w>
Regi onal</w>
Kom ut
G ul
E v</w>
şekl indeki</w>
ğ inin</w>
özel leştirme</w>
öy lesine</w>
ç ası</w>
sho es</w>
mağ az
j el
ion ship</w>
institu tional</w>
in leri</w>
göster ebiliriz</w>
etkil iyor</w>
es ir
dan gers</w>
cemaat i</w>
at oms</w>
accor d</w>
Technolo gy</w>
So dom</w>
Ex plan
Econom y</w>
C rvenkovski</w>
vahş i</w>
vade de</w>
tarih sel</w>
t leri</w>
om uz
mir ac
massac re</w>
li brary</w>
l N
iy se</w>
h ill</w>
elim izden</w>
e gg
dönem in</w>
doğr uyu</w>
d t</w>
bul dular</w>
bahse dec
Hak kari</w>
Gö re
GO D</w>
Fer is
Com p
Com man
An derson</w>
Ş ü
İ Ş
Ç adır
zorunday ız</w>
yöne ti
therap y</w>
soy u</w>
sou ls</w>
sh ine</w>
prosed ür
ol unca</w>
ko ç
k ud
j o</w>
is tik</w>
g ay</w>
er leri</w>
concen tration</w>
con tained</w>
an oviç</w>
N us
Gen işle
1 60</w>
şidde tle</w>
tan k</w>
maz sa</w>
kış kır
ic ing</w>
dec reas
d ging</w>
conver sations</w>
at ılan</w>
W ow</w>
Mos tar</w>
Din k
Constitu tion</w>
B AR</w>
- 3</w>
zorun lu</w>
yapabil irim</w>
tes ad
sür pri
say dı</w>
mus ic
k lasik</w>
il gisini</w>
hospit als</w>
grup ları</w>
et ine</w>
deli ber
con tra
con sen
böy lesine</w>
ama da</w>
L uc
Ja ap</w>
ş uydu</w>
ım ıyla</w>
ülk esinde</w>
çe te
Ö f
yaklaş ırken</w>
tığ ınızda</w>
tecav üz</w>
statis tical</w>
sistem ine</w>
si ç</w>
re r</w>
nec k</w>
mode st</w>
karşı lay
i hal
etkin lik</w>
el den</w>
edil mişti</w>
dön mek</w>
diğ inin</w>
comp en
aş a
Z ion</w>
O m
O ld</w>
Kur umu</w>
Ch o
Bloom berg</w>
vakit li</w>
ti ca</w>
superi or</w>
se b
sc ope</w>
rep lied</w>
ph er
ol uyorlar</w>
of i</w>
müzaker elerinin</w>
mar gin
k le</w>
hes aba</w>
göster miş</w>
don dur
de sert</w>
d ine</w>
boş alt
ad enin</w>
Y Ç</w>
V ay</w>
U se</w>
Ner edeyse</w>
Kad ın
K ız</w>
Bibli cal</w>
Baby lon
-D PM
yazıl ım</w>
w age</w>
susp ected</w>
stran gers</w>
r outine</w>
manif es
man n</w>
le den</w>
las ı</w>
kurul du</w>
kar g
iğren ç</w>
ex pos
es ef</w>
durum la</w>
do y
dil di</w>
b les</w>
araştır maya</w>
ama ş
ac tor</w>
T en
Serge y</w>
D V
Con cer
sun uyor</w>
person el</w>
mir as
lar sak</w>
katıl ma</w>
inde kiler</w>
in ity</w>
em iz</w>
ec stasy</w>
duy du</w>
du alar
doğr usu</w>
cons istent</w>
birey sel</w>
astr onom
ant laş
ad o</w>
Uyan ış</w>
Tra j
Sec re
Kes imi</w>
Explan atory</w>
B M
19 70</w>
0 m</w>
öğüt ler</w>
öğren dik</w>
zaman ki</w>
top ics</w>
tiğ in</w>
thre w</w>
te a</w>
simp li
sahip ler</w>
resul ting</w>
resp ected</w>
p .
müş teri</w>
me lerden</w>
karşı tı</w>
inc ense</w>
imzalan an</w>
his s
de ð
clu b</w>
chro mos
baş ındaki</w>
appro aching</w>
am da</w>
VMRO -DPM
Mas ter</w>
Mal ta</w>
Hen üz</w>
ınday ken</w>
t ages</w>
sle eping</w>
signific ance</w>
sandal ye</w>
pol isin</w>
par mak</w>
ox ide</w>
nok talar</w>
mektup ta</w>
f lies</w>
et ry</w>
ep tion</w>
eksik liği</w>
ek osiste
din leyin</w>
den ey</w>
coordin ate</w>
bel ge</w>
amay an</w>
amac ının</w>
T Ü
T I</w>
R ut</w>
Le ban
K in
Has an</w>
EU FOR</w>
Düz en
DS S</w>
Bas ın</w>
ılığ ın</w>
ö teki</w>
yıl larında</w>
van ın</w>
val id</w>
ur u</w>
sok ak</w>
seçim lerde</w>
sat ır</w>
propag anda</w>
pot entially</w>
len dire
kullan dığımız</w>
kral lığı</w>
hor mon
hey eti</w>
fru itage</w>
fis cal</w>
ev lerine</w>
diğer ine</w>
cat tle</w>
c ek</w>
bür os
appro ached</w>
al ıların</w>
S har
G overning</w>
Francis co</w>
Faz la</w>
An t
Ac tion</w>
A vi
İk incisi</w>
ürri yet</w>
ze alous</w>
vet er
veril ere</w>
up coming</w>
toprağ a</w>
sugges tions</w>
sor uyor</w>
plen ty</w>
o es</w>
muha faz
meslek taş
ma tically</w>
konu daki</w>
komş u
kitap ta</w>
karmaş ık
ilgil idir</w>
hop ed</w>
gözük üyor</w>
fin gers</w>
em pa
düzen ledi</w>
düz en</w>
duyg usu</w>
bilg inin</w>
açıkla masında</w>
araç ları</w>
ade ta</w>
Tas ar
Swit zer
Pharis ees</w>
Ph one</w>
9 4</w>
5 &apos;e</w>
yöntem leri</w>
wel fare</w>
tab ak
reduc ing</w>
reason ing</w>
p oured</w>
od d</w>
occas ions</w>
nes il</w>
makam ları</w>
high way</w>
hak aret</w>
b or</w>
Te mel</w>
Switzer land</w>
N either</w>
B ayan</w>
A pol
İ Ç
ye tik</w>
yas anın</w>
yas al
up set</w>
olan ağı</w>
m ile</w>
low -
gö ğe</w>
gaze tesine</w>
fark lıdır</w>
düş ün</w>
construc ted</w>
başla dığında</w>
as lan
ans ız</w>
am la</w>
Y etkili</w>
Top lum
Pu tin</w>
Nat asa</w>
Gal ati
Encyclop edia</w>
25 th</w>
İspan yol</w>
yap ış
veril iyor</w>
tık larında</w>
tu ary</w>
ti ed</w>
tal ya</w>
süt un</w>
princ ess</w>
olay da</w>
ob an</w>
maz sınız</w>
kütü phan
istikrar lı</w>
he ed</w>
fif ty</w>
equ ally</w>
edebil ecek</w>
cas ting</w>
aş k</w>
art ması</w>
ar mies</w>
W ait</w>
Prosecut or</w>
Dev am</w>
D .</w>
4 x</w>
z in
ti ans</w>
th y
sol ving</w>
sign als</w>
sequ ence</w>
sağ lanması</w>
restor ed</w>
prop he
per forming</w>
ola bilir
kıs aca</w>
kom utan
kapsay an</w>
in di</w>
gördüğ ünü</w>
gre v
garan ti</w>
first born</w>
f alan</w>
durum lar</w>
du var</w>
con ce
celebr ate</w>
bü ro
bot tle</w>
be g
b ül
abileceğ imizi</w>
Yıl lık</w>
CE O</w>
Ay şe</w>
&apos;n ı</w>
önem siz</w>
wher ever</w>
söyleyebil irim</w>
lu cky</w>
lendiri yor</w>
kuş lar</w>
kim e</w>
kaybe den</w>
göster diğini</w>
görün mez</w>
gönder diği</w>
f ah
eriş im</w>
d are</w>
contro versi
compan ions</w>
collabor ation</w>
co al</w>
bak acak</w>
an ızı</w>
ail eler</w>
Top lant
Some thing</w>
P E
De ath</w>
İs ken
ürün ler</w>
ur du</w>
un t</w>
re y</w>
oğ lum</w>
olas ılık</w>
o di
mez sin</w>
magaz ines</w>
ma cy</w>
le h
han g
güven il
gro ws</w>
dır lar</w>
dos tu</w>
analy st</w>
P addy</w>
O ver
Mar ina</w>
K ra
Hay at</w>
Ez ra</w>
E V
Com munic
&apos;n deki</w>
öl üler</w>
tr action</w>
toplum a</w>
ti st</w>
th ri
signific antly</w>
sho ot</w>
say ılı</w>
kullan ır</w>
ja ws</w>
itu al</w>
gra fik
endü st
en ek
düz eni</w>
den ize</w>
consum ers</w>
arkadaş lık</w>
Yarat ıcı</w>
Un til</w>
Man uel</w>
K ings</w>
Gaz prom</w>
D ras
ýn ýn</w>
ö dün
çoğun luk</w>
Çocuk ların</w>
yeten eği</w>
ver diğim</w>
us un</w>
stra tes</w>
res ses</w>
rec re
program ına</w>
kız ın</w>
kanser i</w>
iz .</w>
hatır layın</w>
göz et
e b</w>
din leyic
cov ers</w>
cevap lar</w>
c un
V iy
Soci alist</w>
Mic ah</w>
K ula
K işi</w>
D C</w>
Ben y
B y
çeşit lilik</w>
whe at</w>
volunte ers</w>
ver diğimiz</w>
ver dict</w>
teknoloj inin</w>
tedbir leri</w>
te dar
rela tion</w>
kol on
iş lerin</w>
göster il
gördüğ üm</w>
edil mesine</w>
correspon ding</w>
cal am
amaç la</w>
U.S. A</w>
U ç
Se j
S qu
P aci
Medi ap
Gördüğ ünüz</w>
6 &apos;da</w>
ո ւ
symb ol
millet lerden</w>
lic ate</w>
kâhin ler</w>
imzal adı</w>
iktidar daki</w>
i est</w>
hücre ler</w>
hizmet kâr
f ayda</w>
clou ds</w>
car ri
can ını</w>
bekliy oruz</w>
ab e
Yu an</w>
Ugan da</w>
Sal dır
S hi
S ay</w>
Nor thern</w>
G ece</w>
G H
Fran k
ş ükre
ılığ a</w>
çık tığını</w>
u ph
ten sion</w>
sıfır a</w>
separ ated</w>
reform ların</w>
pal ace</w>
ot en
low est</w>
kurtul uş</w>
kullan ıyoruz</w>
ja il</w>
gre en
fis her
ediyor sunuz</w>
dwel ling</w>
de diğimiz</w>
crac k</w>
başar dı</w>
as ton
Ver sion</w>
VMRO-DPM NE</w>
T ouris
N IN</w>
Mus aya</w>
Lou is</w>
Lj ub
Col um
Cez a
Böy lelikle</w>
yas aları</w>
yak malık</w>
wr ong
t s
oi u</w>
mez un</w>
me tin
m ut</w>
is tics</w>
ing ness</w>
inan ç</w>
in spec
im izdeki</w>
gru ba</w>
gel dik</w>
fırt ın
en z
dest ination</w>
conf used</w>
cin ayet
b az</w>
asker ler</w>
app lies</w>
S izce</w>
Con gress</w>
C id
ıt ma</w>
ım lı</w>
ye de</w>
uk lar</w>
taraf sız</w>
say ısında</w>
saat lik</w>
pow ered</w>
mü te
kullanım ına</w>
kosin üs</w>
ikipe dia</w>
iddi asıyla</w>
gen elinde</w>
fir ması</w>
est ate</w>
eder seniz</w>
cut s</w>
consum er</w>
anlaş ıl
am anın</w>
alın mış</w>
alak alı</w>
abund ant</w>
Vi enna</w>
Ner ede</w>
Kar ak
Dem ocracy</w>
28 th</w>
ınday ız</w>
Ç in
Ç if
yumur t
y ab
touris t</w>
ton ight</w>
scar ed</w>
produc es</w>
piy asa</w>
overse ers</w>
ol uyordu</w>
m uyum</w>
it enin</w>
inter vention</w>
heal ing</w>
ha b</w>
gi diyorum</w>
fin ed</w>
dimen sions</w>
ass uming</w>
amız ın</w>
ab str
Ukr ayna</w>
Hakk ında</w>
Hab akk
9 3</w>
ün y
sadakat le</w>
pre fer</w>
pa int</w>
ol muyor</w>
o dada</w>
ga ining</w>
func tioning</w>
fri gh
fi er
f ab
es a</w>
egg s</w>
e ager</w>
des cription</w>
con stra
choos ing</w>
ama dım</w>
Tok yo</w>
Peygam ber</w>
L üb
Egyp tian</w>
0 &apos;dan</w>
şüph eli</w>
ın la</w>
çık tığı</w>
vir tu
ver meden</w>
uy an</w>
t one</w>
settle ment</w>
pr ol
open ha
olur sanız</w>
neighb ouring</w>
neg lec
mathema tics</w>
k ıla
im pris
hazır ladığı</w>
hayat ının</w>
fe ast</w>
competi tive</w>
busin ess
attrac tive</w>
alan ındaki</w>
Yaln ız</w>
Viy ana</w>
Paci fic</w>
H om
9 &apos;da</w>
çağr ısı</w>
zor luk</w>
sık ıcı</w>
suç la</w>
scho ol
res me</w>
pres sed</w>
ol uyoruz</w>
newsp apers</w>
mesa f
loc ked</w>
kitap lar</w>
istiyor sunuz</w>
gr and</w>
er as</w>
el ing</w>
düşün ür</w>
bulun duğumuz</w>
anla dı</w>
In formation</w>
Dnev nik</w>
Den iz
An aly
öğret mek</w>
z ina</w>
yap ay</w>
vak t
ser may
rup tion</w>
rene w
rec overy</w>
pas sage</w>
o yan
kab a</w>
inde ydi</w>
inc or
in tri
impris oned</w>
gök ten</w>
expan sion</w>
ev angel
diye bilirsiniz</w>
dis appointed</w>
cons ists</w>
attrac ted</w>
P ay
L ong</w>
Kâ hin</w>
Kus ur
Habakk uk</w>
Dok tor
C D</w>
Al mighty</w>
şirket lerin</w>
tut tu</w>
tr usted</w>
sür üc
soru ların</w>
shepher ds</w>
righ tly</w>
natur ally</w>
met ap
meas ured</w>
kuvvet li</w>
instr ument</w>
ic les</w>
hastan eye</w>
geç mesi</w>
ext inc
ci gar
ces sive</w>
broch ure</w>
başla mıştı</w>
baş kenti</w>
at titudes</w>
arz usu</w>
appreci ated</w>
Sto jan
R esp
Proj ect</w>
şart lar</w>
yapıl andır
ver iyorlar</w>
ti g
sır f</w>
sla u
sav cı</w>
reform lar</w>
ra il
organiz asyon
kıl ıç</w>
joy ful</w>
intu ition</w>
inf ected</w>
immor ality</w>
i deki</w>
haf talık</w>
gerek sin
fa x</w>
el lerinden</w>
eb a</w>
düşün üyordu</w>
dön er</w>
bulun dular</w>
bit ter</w>
birth day</w>
assas sin
araç lar</w>
ar amaya</w>
ar alarındaki</w>
app lications</w>
Yeruşal imde</w>
S ha
Nor way</w>
Kendis ini</w>
Hosp ital</w>
Has tal
Cek u</w>
B üt
Şü ph
ığ ının</w>
substan tial</w>
siz liğe</w>
recommen ded</w>
rast gele</w>
pre judi
plan ted</w>
on larca</w>
mak tan
fe eding</w>
f emin
eğ inin</w>
dil ini</w>
c ate
ağ ab
as i</w>
alın t
Sloven ian</w>
K ofi</w>
Dis tri
ön le
çatış ma</w>
tur iz
ti se</w>
spir its</w>
parag raf
optimis tic</w>
negoti ating</w>
lan ce</w>
kim lik</w>
in kâr</w>
fiyat ları</w>
de đ
da imi</w>
co- operate</w>
ben cil</w>
başar ıyla</w>
acqu a
Test ament</w>
Papandre u</w>
G iz
D R
2 3rd</w>
şehir de</w>
ılar daki</w>
ğ inde</w>
özgür lük
çık maya</w>
ur ges</w>
tra fi
sa tel
restaur ant</w>
re actions</w>
pan el</w>
multip lied</w>
mesh edil
lu e</w>
law makers</w>
is tasyon
inj ury</w>
im deki</w>
ha va
giz lice</w>
ge on</w>
foc using</w>
di yebil
dey im</w>
de pic
c ling</w>
bölüm üne</w>
bor ro
as hamed</w>
Tri bunal</w>
Tran s
T ex
Sey diu</w>
Se la
Inv est
Hun gar
Han na</w>
Arnavut lar</w>
&apos; ler</w>
üç ü</w>
çalış ıyordu</w>
zey tin
x y</w>
tü k</w>
tü k
tiğ iniz</w>
te ch</w>
re pair</w>
r y
ord usu</w>
min at</w>
mark eting</w>
kâ h
inte grated</w>
g over
f üz
f on</w>
f ans</w>
edil dim</w>
disas ters</w>
dec ek</w>
cr us
c ket</w>
ban king</w>
ar ch</w>
acqu ire</w>
T ep
P RO
Lu ther</w>
Kar ar
G E
ER S</w>
şirket leri</w>
yönetic isi</w>
uğ ra
topla mak</w>
n iş
mark et
la mada</w>
kal dılar</w>
ifade yi</w>
for nic
eğ iniz</w>
enthusi as
eder se</w>
da ire</w>
citiz en</w>
be z
am bul
N O
I C</w>
Güç lü</w>
Genişle meden</w>
1 19</w>
Ş ey</w>
ziyaret te</w>
z ed</w>
uy ku</w>
sü t</w>
sun lar</w>
oran ının</w>
magne tic</w>
less ness</w>
kü t
kitab ını</w>
ağ ım</w>
al thy</w>
Y ol</w>
PAS OK</w>
Manas se
Lit tle</w>
Fak ül
Eğ iti
ül üyor</w>
yüksel di</w>
yuvar lak</w>
yaz dım</w>
teş his</w>
ter imi</w>
te mas
ru b
public ly</w>
po ol</w>
numar alı</w>
mon etary</w>
migr ants</w>
m ün
las yon
impres sion</w>
fle xi
fel low
do main</w>
den s</w>
com bat</w>
co s</w>
başkan lığını</w>
ameliy at</w>
S id
No tice</w>
Ni met
Hizk iya</w>
G ro
F ati
Ön der
yaz an</w>
y edinci</w>
wor l
tut un</w>
sıv ı</w>
sw im
susta in</w>
sun usu</w>
siy di</w>
sick ness</w>
sh ou
sek re
sağ lığ
ris ki</w>
r at
pla cing</w>
part ilerin</w>
on er</w>
o g</w>
medi um</w>
me den
ma malıyız</w>
ken dil
ilişk isi</w>
fa z</w>
em ir</w>
educ ated</w>
düş tüğ
di .</w>
devam lı</w>
aw a
amız daki</w>
a med</w>
Si x</w>
Ru h</w>
Re port</w>
Dem ir</w>
Chic ago</w>
B abil
İ say
çıkar an</w>
yaşam larını</w>
yapar sanız</w>
tip ik</w>
ta ted</w>
sey ret
ru in</w>
om ir</w>
müz is
mir acle</w>
mechan ism</w>
leştir mek</w>
lar ıdır</w>
kro moz
konfer an
k ıyı</w>
istiyor dum</w>
il leri</w>
gel sin</w>
en den</w>
el ler</w>
düş k
com memor
bırak ın</w>
bre ast</w>
ama dığı</w>
ail esine</w>
ahlak sız
Sad ık</w>
S al</w>
S ad</w>
L ov
Kos or</w>
Kon sey</w>
Even tually</w>
Bil iyorum</w>
Bak alım</w>
yen in</w>
war ns</w>
tü ket
th ick</w>
sk ill</w>
seç ilmiş</w>
senten ces</w>
sayg ılı</w>
sak lan
or ship</w>
memor ies</w>
lar in</w>
la d
kriz in</w>
kop ar
karş ılığı</w>
journ alism</w>
hisse diyor</w>
bekle diğini</w>
av ing</w>
ah it</w>
W ikipedia</w>
S ark
Pren ses</w>
ver mesini</w>
uc co</w>
t avr
sür ü
söz leriyle</w>
suppor ters</w>
sonuç lara</w>
nerv ous</w>
mim ar
l uyor</w>
imzal adılar</w>
im dir</w>
hukuk un</w>
hero in</w>
gö m
fe aring</w>
fam ine</w>
dal ık</w>
conven tions</w>
amp het
alın tı</w>
ad ık
ac tiv
T en</w>
Si meon</w>
Rus sell</w>
P C</w>
F ik
İnsan lara</w>
ö len
çap lı</w>
yaş ta</w>
uç uş
te ar</w>
remark s</w>
pat ent</w>
lik lerini</w>
iy üz
enjoy ing</w>
ek ip</w>
[...]
